<unk>	0
<s>	0
</s>	0
▁.	-0
▁?	-1
▁그	-2
▁아	-3
▁이	-4
▁어	-5
▁,	-6
▁너	-7
▁나	-8
▁내	-9
▁좋	-10
▁다	-11
▁응	-12
▁가	-13
니다	-14
▁하	-15
▁!	-16
▁좋아	-17
▁안	-18
▁뭐	-19
▁해	-20
▁있	-21
▁사	-22
▁주	-23
▁말	-24
▁아니	-25
▁거	-26
▁좋아해	-27
▁내가	-28
▁지	-29
▁저	-30
▁일	-31
▁제	-32
▁없	-33
▁네	-34
▁자	-35
▁왜	-36
▁알	-37
▁여	-38
는데	-39
▁친	-40
▁오	-41
▁정	-42
▁잘	-43
세요	-44
니까	-45
▁보	-46
습니다	-47
▁야	-48
▁한	-49
▁영	-50
▁돈	-51
▁죄	-52
▁친구	-53
▁무	-54
▁있어	-55
▁죄송	-56
▁좀	-57
▁같	-58
▁진	-59
▁못	-60
▁만	-61
▁그래	-62
합니다	-63
▁부	-64
▁영화	-65
▁생	-66
이야	-67
잖아	-68
라고	-69
▁죽	-70
▁니	-71
▁그러	-72
▁우	-73
는거	-74
▁시	-75
▁정말	-76
에서	-77
▁진짜	-78
▁죄송합니다	-79
다고	-80
▁지금	-81
▁무슨	-82
렇게	-83
▁많	-84
▁수	-85
었어	-86
▁기	-87
하고	-88
한테	-89
▁오늘	-90
▁할	-91
▁주로	-92
▁미	-93
▁먹	-94
▁마	-95
▁우리	-96
▁주말	-97
으로	-98
▁했	-99
어요	-100
▁이번	-101
▁그냥	-102
▁그럼	-103
겠습니다	-104
으면	-105
▁대	-106
들이	-107
▁맞	-108
▁싶	-109
▁들	-110
▁여행	-111
▁더	-112
▁어때	-113
▁살	-114
▁운	-115
▁제가	-116
▁많이	-117
▁학	-118
▁자주	-119
▁집	-120
까지	-121
▁게	-122
▁요	-123
거야	-124
▁그런	-125
▁당	-126
▁모	-127
▁제발	-128
▁이거	-129
▁사람	-130
하는	-131
▁때	-132
▁운동	-133
▁바	-134
▁새	-135
▁봐	-136
장님	-137
▁너무	-138
▁가족	-139
▁거야	-140
▁것	-141
▁어디	-142
▁주말에	-143
▁애	-144
▁생각	-145
▁신	-146
▁같이	-147
▁고	-148
▁회	-149
▁얼	-150
▁계	-151
▁되	-152
▁장	-153
지마	-154
▁소	-155
▁여기	-156
▁없어	-157
▁누	-158
▁만나	-159
▁조	-160
겠어	-161
▁빨	-162
▁그렇게	-163
▁싫	-164
▁날	-165
▁비	-166
▁않	-167
▁어떻	-168
▁나는	-169
▁친구랑	-170
▁남	-171
주세요	-172
▁얘	-173
▁어떻게	-174
▁전	-175
▁빨리	-176
▁미안	-177
▁니가	-178
▁그만	-179
▁선	-180
▁언	-181
▁회사	-182
▁알아	-183
▁빌	-184
에요	-185
▁다음	-186
▁불	-187
▁재	-188
▁들어	-189
▁김	-190
▁감	-191
▁매	-192
해서	-193
▁건	-194
▁적	-195
▁아니야	-196
▁줄	-197
거나	-198
▁인	-199
▁입	-200
봤어	-201
▁안돼	-202
▁과	-203
▁음	-204
하면	-205
▁상	-206
▁공	-207
는거야	-208
▁다녀	-209
▁도	-210
▁돼	-211
▁언제	-212
야지	-213
▁취	-214
하게	-215
▁찍	-216
▁갈	-217
▁손	-218
들이랑	-219
▁걸	-220
▁엄	-221
리고	-222
▁이제	-223
▁빌려	-224
▁했어	-225
▁그게	-226
▁번	-227
▁그건	-228
하지	-229
려고	-230
▁가져	-231
이라	-232
▁부모	-233
인데	-234
▁어제	-235
▁싶어	-236
▁배	-237
▁넌	-238
▁난	-239
▁이렇게	-240
▁연	-241
▁받	-242
▁와	-243
▁형	-244
▁나도	-245
▁아직	-246
▁지내	-247
▁너가	-248
▁따	-249
▁사진	-250
▁동	-251
▁드	-252
대로	-253
머니	-254
▁아침	-255
▁중	-256
해요	-257
▁엄마	-258
▁시간	-259
▁잘못	-260
▁근	-261
▁눈	-262
▁준	-263
▁취미	-264
▁하나	-265
▁만원	-266
▁이야	-267
▁뭘	-268
▁부모님	-269
▁본	-270
▁이러	-271
▁이런	-272
▁얘기	-273
▁끝	-274
▁돌	-275
▁머	-276
▁어떤	-277
▁차	-278
▁기분	-279
겠다	-280
보다	-281
아서	-282
▁이야기	-283
▁달	-284
▁학교	-285
게요	-286
▁세	-287
▁최	-288
▁화	-289
▁안되	-290
▁다른	-291
▁가서	-292
▁개	-293
▁경	-294
▁예	-295
▁말이	-296
▁등	-297
▁커	-298
대리	-299
▁쳐	-300
▁내일	-301
▁원	-302
▁근데	-303
▁앞	-304
▁새로	-305
▁나한테	-306
▁말씀	-307
▁다시	-308
▁다니	-309
▁피	-310
시면	-311
▁새끼	-312
▁신고	-313
▁한번	-314
▁점	-315
▁하지	-316
▁좋은	-317
마다	-318
▁아이	-319
▁이게	-320
▁그거	-321
▁하고	-322
▁올	-323
▁돈이	-324
▁읽	-325
▁작	-326
▁필	-327
부터	-328
▁맞아	-329
▁얼마	-330
▁쓰	-331
▁준비	-332
▁아닌	-333
▁아닙	-334
▁매일	-335
▁살려	-336
▁그러게	-337
▁휴	-338
▁열	-339
▁책	-340
▁타	-341
▁자네	-342
▁월	-343
들어	-344
▁직	-345
지고	-346
▁당장	-347
▁필요	-348
▁가고	-349
▁날씨	-350
▁그래도	-351
▁즐	-352
▁참	-353
▁구	-354
▁스	-355
▁모르	-356
▁커피	-357
▁아침에	-358
▁당신	-359
▁집에	-360
잖아요	-361
▁됐	-362
했어	-363
▁나와	-364
▁미안해	-365
▁웃	-366
▁내놔	-367
▁요즘	-368
은데	-369
▁쉬	-370
▁새로운	-371
▁줘	-372
▁사귀	-373
▁죽여	-374
▁없어요	-375
지는	-376
▁하는	-377
▁뒤	-378
▁추	-379
▁힘	-380
리가	-381
▁뭔	-382
▁몰	-383
▁등산	-384
▁아닙니다	-385
▁같아	-386
▁누구	-387
▁어머니	-388
새끼	-389
▁갔	-390
생님	-391
▁알겠습니다	-392
▁유	-393
▁있는	-394
▁물	-395
▁또	-396
있어	-397
▁그렇	-398
왔어	-399
이나	-400
▁부탁	-401
▁분	-402
▁부장님	-403
▁아니라	-404
▁산	-405
▁왜그	-406
년에	-407
이랑	-408
▁이번에	-409
▁아버	-410
▁주말마다	-411
▁나가	-412
▁사귀었어	-413
▁저기	-414
▁에	-415
▁소리	-416
▁게임	-417
▁휴가	-418
▁아무	-419
▁연락	-420
▁재밌	-421
▁저희	-422
버릴	-423
▁점심	-424
▁똑	-425
가요	-426
▁보내	-427
▁집에서	-428
▁문	-429
▁나오	-430
▁하면	-431
▁잠	-432
▁다들	-433
시고	-434
▁선생님	-435
▁정신	-436
▁학원	-437
▁식	-438
것도	-439
지만	-440
▁너네	-441
어나	-442
▁놀	-443
라도	-444
▁싫어	-445
밖에	-446
▁친구들이랑	-447
▁넘	-448
하다	-449
▁보고	-450
는데요	-451
▁해야	-452
▁교	-453
▁관	-454
리는	-455
건데	-456
▁짜	-457
▁먹어	-458
▁뭐야	-459
▁특	-460
▁발	-461
▁생활	-462
▁알았	-463
▁편	-464
▁그래서	-465
▁두	-466
▁맛	-467
▁심	-468
▁노	-469
나요	-470
네요	-471
▁누가	-472
▁장난	-473
▁아니고	-474
▁저번	-475
▁일이	-476
▁간	-477
▁저녁	-478
하세요	-479
▁약	-480
▁봤어	-481
▁얼굴	-482
▁딸	-483
▁싸	-484
▁그만해	-485
▁금	-486
▁딱	-487
▁서	-488
▁치	-489
는게	-490
▁뭐가	-491
▁이건	-492
▁처	-493
▁애들	-494
▁남자	-495
▁돌려	-496
문에	-497
까요	-498
▁먹을	-499
▁알겠어	-500
더라	-501
이지	-502
▁너는	-503
▁조금	-504
▁몇	-505
▁요리	-506
▁카	-507
▁감상	-508
▁꺼	-509
▁일어나	-510
▁어머니는	-511
▁갑	-512
▁반	-513
▁아버지는	-514
▁가방	-515
으니까	-516
▁계속	-517
▁목	-518
▁성	-519
▁확	-520
▁특히	-521
▁친구들	-522
▁꼭	-523
줄게	-524
하기	-525
▁말고	-526
▁음악	-527
근에	-528
▁찍어	-529
▁언제야	-530
▁행	-531
▁하루	-532
▁업	-533
▁병	-534
▁평	-535
▁옷	-536
▁찍는	-537
▁최근에	-538
▁환	-539
▁큰	-540
▁보러	-541
하네	-542
하시	-543
겠네	-544
▁자연	-545
▁작년에	-546
거워	-547
▁요가	-548
하겠습니다	-549
▁혹	-550
▁식사	-551
▁죽어	-552
▁그리고	-553
▁한식	-554
▁즐거워	-555
▁거기	-556
▁경찰	-557
▁혹시	-558
▁가족들이랑	-559
▁디	-560
자기	-561
주도	-562
한거	-563
▁어이	-564
▁얘기해	-565
활동	-566
▁몰라	-567
▁생각보다	-568
어서	-569
▁계획	-570
식으로	-571
▁운동해	-572
▁담	-573
▁씨	-574
▁활동	-575
▁사람이	-576
▁그러니까	-577
▁갚	-578
▁볼	-579
▁말을	-580
▁먹고	-581
▁산책	-582
▁길	-583
말고	-584
▁제주도	-585
▁될	-586
▁풀	-587
면서	-588
▁데	-589
▁벌	-590
같은	-591
▁자꾸	-592
▁괜	-593
▁칼	-594
▁고객	-595
▁형제	-596
▁앞으로	-597
해져	-598
▁갑자기	-599
▁방	-600
여행	-601
이고	-602
졌어	-603
▁무서	-604
▁없는	-605
▁하지마	-606
▁민	-607
▁밥	-608
▁밤	-609
▁팀	-610
헤어	-611
▁손님	-612
입니다	-613
▁속	-614
자매	-615
▁말이야	-616
▁형제자매	-617
고싶	-618
▁제대로	-619
▁너도	-620
▁어디서	-621
▁아주	-622
▁저도	-623
▁저번에	-624
▁죄송해요	-625
소리	-626
▁생일	-627
▁그러면	-628
▁얼마나	-629
▁알고	-630
▁결	-631
▁혼	-632
▁김대리	-633
▁말해	-634
냄새	-635
이라도	-636
▁마셔	-637
▁기다	-638
▁없어서	-639
▁찾	-640
▁코	-641
크림	-642
▁끝나	-643
▁업무	-644
▁연락해	-645
▁살려주세요	-646
▁버	-647
▁그걸	-648
▁헤어	-649
워서	-650
하냐	-651
▁이리	-652
▁친절	-653
▁실	-654
▁써	-655
▁양	-656
기가	-657
아니	-658
주면	-659
▁따라	-660
친구	-661
▁위	-662
시죠	-663
테니	-664
▁몸	-665
다는	-666
하는데	-667
▁파	-668
거든	-669
▁같은	-670
▁문제	-671
▁여자	-672
▁음식	-673
▁저는	-674
▁전에	-675
테니까	-676
적인	-677
▁직장	-678
▁오빠	-679
구나	-680
▁냄새	-681
▁사이	-682
▁아니요	-683
▁알았어	-684
▁챙	-685
▁토	-686
▁이상	-687
▁나랑	-688
▁안녕	-689
다니까	-690
▁가족들	-691
▁한번만	-692
▁절	-693
바로	-694
하나	-695
▁바로	-696
▁비가	-697
▁맑	-698
▁번은	-699
▁왜이	-700
▁고객님	-701
▁과장님	-702
▁그럴	-703
▁있을	-704
▁괜찮	-705
▁재미	-706
▁하셔	-707
▁날씨가	-708
▁믿	-709
▁가만	-710
▁뭐라고	-711
▁박	-712
구요	-713
한데	-714
▁축	-715
던데	-716
▁잠깐	-717
▁하겠습니다	-718
다니	-719
▁알지	-720
▁멀	-721
예요	-722
▁왜그래	-723
▁용	-724
▁꼬	-725
사람	-726
요일	-727
▁것도	-728
▁주세요	-729
났어	-730
생이	-731
해주	-732
▁가지고	-733
▁걷	-734
▁사과	-735
▁시키	-736
▁시험	-737
▁환불	-738
겠어요	-739
▁국	-740
▁잡	-741
▁내려	-742
▁바람	-743
▁똑바로	-744
▁알아서	-745
▁있어서	-746
▁먼	-747
는지	-748
▁아냐	-749
▁어쩌	-750
▁사장님	-751
▁우리가	-752
▁네가	-753
▁미쳤	-754
▁말씀이	-755
▁없는데	-756
▁뻔	-757
▁마음	-758
▁수업	-759
▁일을	-760
▁여기서	-761
주일	-762
▁조용	-763
▁안돼요	-764
▁일주일	-765
▁잘못했	-766
▁거짓	-767
▁힘들	-768
▁끝나고	-769
▁듣	-770
▁도와	-771
▁돈을	-772
▁때문에	-773
▁별	-774
해야	-775
▁보는	-776
▁권	-777
▁봤	-778
▁빠	-779
▁퇴	-780
▁대리	-781
▁무서워	-782
▁부모님은	-783
▁허	-784
겼어	-785
아가	-786
▁밤에	-787
▁아빠	-788
▁이래	-789
▁장애	-790
적이	-791
▁약속	-792
▁거짓말	-793
▁의	-794
▁팔	-795
놓고	-796
들은	-797
전에	-798
지도	-799
▁너랑	-800
▁말대	-801
▁어머	-802
▁자식	-803
쳐서	-804
▁맛집	-805
▁머리	-806
냐고	-807
드리	-808
▁혼자	-809
이라고	-810
▁아니면	-811
▁협	-812
▁거지	-813
▁일하	-814
▁전화	-815
▁기분이	-816
생활	-817
심히	-818
▁가는	-819
십니까	-820
▁놈	-821
▁탐	-822
같이	-823
겠지	-824
▁관광	-825
▁모두	-826
▁얼른	-827
▁조용히	-828
▁막	-829
한다	-830
▁일찍	-831
습니까	-832
▁로	-833
라는	-834
방할	-835
▁그런데	-836
▁탐방할	-837
▁관광하고	-838
▁맨	-839
던가	-840
▁계셔	-841
▁과제	-842
▁어쩔	-843
▁진정	-844
▁같은데	-845
▁나왔어	-846
▁아닌데	-847
▁급	-848
스타	-849
일이	-850
주라	-851
▁돼지	-852
▁먼저	-853
▁안될	-854
▁이미	-855
▁행사	-856
▁싫으면	-857
▁저기요	-858
▁승	-859
보고	-860
소에	-861
▁그랬	-862
▁말아	-863
▁생신	-864
▁카페	-865
▁있는데	-866
▁필요한	-867
▁같습니다	-868
▁쟤	-869
이면	-870
▁금요일	-871
▁머리가	-872
▁재밌어	-873
버릴거야	-874
▁없습니다	-875
그래	-876
도가	-877
드릴	-878
버리	-879
시간	-880
▁마세요	-881
▁생각해	-882
▁열심히	-883
▁지내고	-884
다가	-885
라면	-886
레스	-887
린다	-888
▁됐고	-889
▁가족은	-890
▁아니에요	-891
▁너희	-892
▁달에	-893
▁있지	-894
셨어	-895
으니	-896
하신	-897
▁길동	-898
▁스트	-899
▁알려	-900
▁어디로	-901
▁왜그러	-902
▁뽑	-903
▁맨날	-904
▁이것	-905
▁협박	-906
▁스트레스	-907
▁못생	-908
▁주에	-909
▁죽을	-910
▁빌려줘	-911
▁엄마가	-912
▁읽거나	-913
▁높	-914
▁출	-915
이네	-916
처럼	-917
▁걷는	-918
▁다양	-919
▁드릴	-920
▁말로	-921
▁시에	-922
▁해서	-923
하지마	-924
▁영화를	-925
▁저녁에	-926
▁취미로	-927
▁다니시고	-928
▁강	-929
▁둘	-930
관이	-931
자고	-932
▁소설	-933
▁장르	-934
하는거	-935
▁다양한	-936
▁친구도	-937
▁임	-938
▁현	-939
구를	-940
져서	-941
▁꺼져	-942
▁볼까	-943
▁싶다	-944
전하는	-945
▁장르의	-946
▁평소에	-947
▁니네	-948
▁못해	-949
▁아파	-950
▁즐겨	-951
▁만원만	-952
▁산책해	-953
▁쉬거나	-954
▁망	-955
도록	-956
시는	-957
▁갈래	-958
▁건강	-959
▁매주	-960
▁소문	-961
▁아들	-962
▁이걸	-963
으라고	-964
▁운동할	-965
▁하는데	-966
▁내일까지	-967
▁도전하는	-968
▁요리하는	-969
▁힐	-970
라마	-971
장면	-972
정도	-973
텐데	-974
▁그런거	-975
▁이새끼	-976
▁짜장면	-977
▁액	-978
▁짐	-979
▁풍	-980
려서	-981
▁동생	-982
▁뭔데	-983
▁않아	-984
▁퇴근	-985
▁힐링	-986
▁운동회	-987
▁있어요	-988
▁축구를	-989
▁해야지	-990
▁이야기해	-991
▁금요일이야	-992
▁명	-993
▁춤	-994
가서	-995
아리	-996
▁모자	-997
▁자전	-998
▁절대	-999
▁좋다	-1000
▁가방은	-1001
▁나오면	-1002
▁힐링돼	-1003
▁겨	-1004
메이	-1005
아갈	-1006
없어	-1007
▁밖에	-1008
▁스릴	-1009
▁애니	-1010
▁지나	-1011
▁짜증	-1012
▁해외	-1013
야겠어	-1014
▁신고할	-1015
▁자전거	-1016
▁했는데	-1017
▁있습니다	-1018
▁널	-1019
▁쌌	-1020
▁억	-1021
▁팝	-1022
더니	-1023
이다	-1024
▁공부	-1025
▁공유	-1026
▁김치	-1027
▁미친	-1028
▁시끄	-1029
▁액션	-1030
▁읽는	-1031
▁팝송	-1032
▁넘쳐서	-1033
▁읽었어	-1034
▁팀장님	-1035
▁가족들과	-1036
▁식사하고	-1037
▁늦	-1038
▁단	-1039
▁완	-1040
▁으	-1041
은거	-1042
저씨	-1043
정이	-1044
▁감사	-1045
▁받아	-1046
▁중식	-1047
스에서	-1048
▁새끼야	-1049
▁시간을	-1050
▁조금만	-1051
▁가족이랑	-1052
▁술	-1053
▁어떡	-1054
▁일본	-1055
▁자기	-1056
▁타는	-1057
▁풍경	-1058
▁가려고	-1059
▁갔었어	-1060
▁그니까	-1061
▁너한테	-1062
▁동아리	-1063
▁먹었어	-1064
▁속에서	-1065
▁장애인	-1066
▁좋더라	-1067
▁남자친구	-1068
▁찐	-1069
▁천	-1070
▁가본	-1071
▁그림	-1072
▁불어	-1073
▁쌌어	-1074
▁어딨	-1075
▁일단	-1076
메이션	-1077
▁기다려	-1078
▁만들어	-1079
▁요가를	-1080
▁월이야	-1081
▁챙겼어	-1082
▁해외여행	-1083
▁애니메이션	-1084
▁괴	-1085
▁꼴	-1086
▁갔어	-1087
▁나면	-1088
▁중요	-1089
있었어	-1090
▁드라마	-1091
▁파스타	-1092
▁빼	-1093
셉션	-1094
스트	-1095
▁아까	-1096
▁에이	-1097
▁유럽	-1098
면에서	-1099
▁아이스	-1100
▁인셉션	-1101
▁짜증나	-1102
▁해봤어	-1103
▁키	-1104
미디	-1105
즈니	-1106
▁대신	-1107
▁병원	-1108
▁살아	-1109
▁세우	-1110
▁조깅	-1111
▁친해	-1112
▁공유해	-1113
▁디즈니	-1114
▁아저씨	-1115
▁어제도	-1116
▁코미디	-1117
▁설	-1118
랐어	-1119
빔밥	-1120
에게	-1121
웠어	-1122
중에	-1123
지막	-1124
찌개	-1125
추는	-1126
▁노력	-1127
▁많아	-1128
▁배워	-1129
▁보람	-1130
▁보여	-1131
▁여동	-1132
▁여름	-1133
▁웃게	-1134
▁웃기	-1135
▁비빔밥	-1136
▁쉬었어	-1137
▁한식이	-1138
▁일하거나	-1139
▁겁	-1140
▁넷	-1141
묘한	-1142
플릭	-1143
▁결혼	-1144
▁교복	-1145
▁물어	-1146
▁불편	-1147
▁알바	-1148
▁어땠	-1149
▁어려	-1150
▁원래	-1151
▁줄게	-1152
▁지갑	-1153
▁확인	-1154
▁기묘한	-1155
▁넷플릭	-1156
▁마지막	-1157
▁죽고싶	-1158
▁김치찌개	-1159
▁재미있어	-1160
▁재밌었어	-1161
▁넷플릭스에서	-1162
▁까	-1163
리면	-1164
▁바빴	-1165
▁선배	-1166
▁양식	-1167
▁여보	-1168
▁조심	-1169
▁찐따	-1170
▁편해	-1171
▁피자	-1172
하니까	-1173
▁그리는	-1174
▁영화관	-1175
▁화면에서	-1176
▁년	-1177
▁후	-1178
▁사실	-1179
▁수영	-1180
▁좋네	-1181
▁풀려	-1182
▁학기	-1183
▁해봐	-1184
▁어땠어	-1185
▁어제는	-1186
▁춤추는	-1187
▁계획이야	-1188
▁바빴지만	-1189
▁보람있었어	-1190
나봐	-1191
렸을	-1192
보자	-1193
와서	-1194
줘야	-1195
▁감동	-1196
▁상사	-1197
▁아름	-1198
▁왜요	-1199
▁하늘	-1200
이에요	-1201
▁가봤어	-1202
▁건강해	-1203
▁그렇지	-1204
▁말대꾸	-1205
▁여름에	-1206
▁준비는	-1207
▁중이야	-1208
▁귀	-1209
▁글	-1210
▁된	-1211
▁헬	-1212
다며	-1213
맨스	-1214
▁눈이	-1215
▁음료	-1216
▁이쁘	-1217
▁일식	-1218
▁직원	-1219
▁해주	-1220
는거지	-1221
▁나들이	-1222
▁로맨스	-1223
▁멀었어	-1224
▁세우자	-1225
▁어렸을	-1226
▁죽겠어	-1227
▁직장에서	-1228
▁형제자매랑	-1229
▁맘	-1230
▁역	-1231
꺼야	-1232
다면	-1233
다워	-1234
▁과자	-1235
▁담배	-1236
▁싸는	-1237
▁추억	-1238
▁하네	-1239
▁가거나	-1240
▁없으면	-1241
▁가져왔어	-1242
▁감동적인	-1243
▁짓	-1244
가지	-1245
십시	-1246
▁들고	-1247
▁먹을래	-1248
▁보거나	-1249
▁여동생이	-1250
▁친구들하고	-1251
▁외	-1252
떨어	-1253
알아	-1254
▁괴롭	-1255
▁국내	-1256
가지고	-1257
▁경관이	-1258
▁아름다워	-1259
▁온	-1260
▁욕	-1261
▁존	-1262
▁남기	-1263
▁다리	-1264
▁목숨	-1265
▁영어	-1266
▁정도	-1267
▁주면	-1268
했는데	-1269
▁만났어	-1270
▁토스트	-1271
▁남기려고	-1272
▁습	-1273
오면	-1274
이냐	-1275
▁공포	-1276
▁에어	-1277
일이나	-1278
▁교복은	-1279
▁배웠어	-1280
▁운동하고	-1281
▁눅	-1282
▁켜	-1283
끼리	-1284
리지	-1285
▁높아	-1286
▁눅눅	-1287
▁상쾌	-1288
▁자리	-1289
▁마셨어	-1290
▁사람들	-1291
▁습도가	-1292
▁친절해	-1293
▁눅눅해져	-1294
▁상쾌해져	-1295
▁갖	-1296
스장	-1297
인가	-1298
줌마	-1299
케이	-1300
▁내놓	-1301
▁부르	-1302
▁사랑	-1303
▁없고	-1304
▁일상	-1305
▁헬스장	-1306
▁그러세요	-1307
▁배워봤어	-1308
▁토스트랑	-1309
▁프	-1310
는건	-1311
▁그때	-1312
▁그치	-1313
▁눈치	-1314
▁이유	-1315
▁일로	-1316
아니야	-1317
▁그러지	-1318
▁등산해	-1319
▁아줌마	-1320
▁아이스크림	-1321
사원	-1322
하자	-1323
▁나이	-1324
▁안좋	-1325
▁뻔했어	-1326
▁간식으로	-1327
▁곧	-1328
▁쓸	-1329
같아	-1330
▁대학	-1331
▁사와	-1332
▁오네	-1333
▁우산	-1334
▁추워	-1335
▁테니	-1336
때문에	-1337
하잖아	-1338
하는거야	-1339
▁과일이나	-1340
는다	-1341
셔서	-1342
▁건들	-1343
▁겨울	-1344
▁말도	-1345
▁찾아	-1346
▁날아갈	-1347
▁맑아서	-1348
▁바람이	-1349
▁에어컨	-1350
▁오늘은	-1351
▁저한테	-1352
▁하늘이	-1353
▁힘들어	-1354
▁일주일에	-1355
▁찌	-1356
갑다	-1357
할게	-1358
▁누군	-1359
▁상관	-1360
▁안해	-1361
▁없네	-1362
▁죽고	-1363
▁더워서	-1364
▁선크림	-1365
▁켜야겠어	-1366
▁통	-1367
▁햇	-1368
치고	-1369
▁처음	-1370
하는게	-1371
▁발랐어	-1372
▁있는거	-1373
▁있잖아	-1374
▁했잖아	-1375
▁겨울이야	-1376
▁추워졌어	-1377
▁느	-1378
만은	-1379
볕이	-1380
에는	-1381
인지	-1382
창해	-1383
▁세상	-1384
▁열정	-1385
▁입금	-1386
▁케이	-1387
▁날씨야	-1388
▁따갑다	-1389
▁케이크	-1390
▁하세요	-1391
▁햇볕이	-1392
▁화창해	-1393
해주세요	-1394
▁산책하기	-1395
▁왔	-1396
▁잔	-1397
▁증	-1398
▁맞고	-1399
▁승진	-1400
▁실수	-1401
▁완전	-1402
▁이따	-1403
▁저요	-1404
▁화장	-1405
거에요	-1406
▁같아요	-1407
▁하라고	-1408
저트	-1409
▁고마	-1410
▁병신	-1411
▁월급	-1412
▁일도	-1413
▁가만히	-1414
▁경찰에	-1415
▁디저트	-1416
▁소리야	-1417
▁케이크랑	-1418
▁안녕하세요	-1419
▁태	-1420
구만	-1421
씨가	-1422
해라	-1423
▁남편	-1424
▁대체	-1425
▁떨어	-1426
▁쳐본	-1427
▁해줘	-1428
▁아직도	-1429
▁테니스	-1430
▁가족여행	-1431
▁순	-1432
▁크	-1433
기는	-1434
해봐	-1435
▁당연	-1436
▁아가	-1437
▁없지	-1438
▁용돈	-1439
▁있냐	-1440
▁줘봐	-1441
달라고	-1442
적이셔	-1443
▁그래요	-1444
▁음료는	-1445
▁헤어지	-1446
▁그러지마	-1447
▁친절하고	-1448
▁열정적이셔	-1449
들아	-1450
▁말할	-1451
▁오해	-1452
▁와서	-1453
▁처리	-1454
▁추운	-1455
▁새끼가	-1456
되네	-1457
았어	-1458
지가	-1459
쳤네	-1460
▁수가	-1461
▁신경	-1462
▁안된	-1463
▁좋게	-1464
차피	-1465
▁있나	-1466
▁죽일	-1467
됩니다	-1468
십시오	-1469
적으로	-1470
하라고	-1471
▁가져와	-1472
▁나중에	-1473
▁보고서	-1474
▁어차피	-1475
▁있으면	-1476
▁옆	-1477
가락	-1478
만원	-1479
줄까	-1480
▁구해	-1481
▁나를	-1482
▁무시	-1483
▁물건	-1484
▁상황	-1485
▁쓰고	-1486
▁안그	-1487
▁정리	-1488
▁해보	-1489
▁공기가	-1490
▁당신이	-1491
▁일년에	-1492
▁제발요	-1493
▁닥	-1494
▁초	-1495
▁호	-1496
주고	-1497
▁맑아	-1498
▁신입	-1499
▁학생	-1500
버린다	-1501
한다고	-1502
▁빵	-1503
던지	-1504
▁벌써	-1505
▁장기	-1506
▁그쳤네	-1507
▁대리님	-1508
▁되잖아	-1509
▁않으면	-1510
▁자네가	-1511
▁하는거	-1512
▁계속되네	-1513
▁맑아졌어	-1514
인거	-1515
▁끝내	-1516
▁돈은	-1517
▁뭐라	-1518
▁번만	-1519
▁안보	-1520
▁너같은	-1521
▁정신차	-1522
▁빌려주라	-1523
▁감사합니다	-1524
▁각	-1525
▁청	-1526
니깐	-1527
▁기억	-1528
▁줄래	-1529
겁니다	-1530
하다고	-1531
▁하지만	-1532
▁저번에도	-1533
▁죽여버릴거야	-1534
▁넣	-1535
▁답	-1536
셔야	-1537
수가	-1538
▁갚을	-1539
▁개인	-1540
▁나쁘	-1541
▁선물	-1542
▁아는	-1543
▁이름	-1544
▁합	-1545
간다	-1546
겠냐	-1547
러워	-1548
▁보기	-1549
▁가져가	-1550
▁돌려줘	-1551
▁시키는	-1552
▁맡	-1553
▁착	-1554
께요	-1555
와봐	-1556
▁불러	-1557
▁사회	-1558
▁생겼	-1559
▁아프	-1560
▁없이	-1561
▁인사	-1562
▁입고	-1563
겠다고	-1564
립니다	-1565
▁아니잖아	-1566
▁걱	-1567
에도	-1568
▁가게	-1569
▁불쌍	-1570
▁쓰레	-1571
▁아뇨	-1572
▁주제	-1573
▁프로	-1574
▁하기	-1575
었는데	-1576
▁곳	-1577
▁함	-1578
▁못하	-1579
▁별로	-1580
▁잠시	-1581
▁증거	-1582
말이야	-1583
▁고마워	-1584
▁시간이	-1585
▁궁	-1586
▁쪽	-1587
주는	-1588
▁가진	-1589
▁까지	-1590
▁보면	-1591
▁카드	-1592
▁해요	-1593
셨어요	-1594
▁얘들아	-1595
▁없다고	-1596
▁드릴게요	-1597
▁오늘까지	-1598
▁뿐	-1599
▁줬	-1600
동안	-1601
위로	-1602
해보	-1603
▁두고	-1604
▁없다	-1605
▁인생	-1606
▁좋을	-1607
▁회식	-1608
▁앞에서	-1609
▁회사에	-1610
▁누구세요	-1611
▁놔	-1612
▁기회	-1613
▁되지	-1614
▁장사	-1615
▁하시	-1616
▁행동	-1617
으세요	-1618
가는	-1619
대체	-1620
럽게	-1621
봐야	-1622
서요	-1623
이요	-1624
해도	-1625
▁갖고	-1626
▁걱정	-1627
▁대로	-1628
▁돈도	-1629
▁어울	-1630
▁예쁘	-1631
▁와봐	-1632
▁존나	-1633
▁하하	-1634
▁했지	-1635
▁아무것도	-1636
▁골	-1637
님이	-1638
드려	-1639
▁너만	-1640
▁안나	-1641
▁어린	-1642
▁해결	-1643
거니까	-1644
▁도대체	-1645
▁울	-1646
▁척	-1647
능력	-1648
하니	-1649
학교	-1650
▁가야	-1651
▁달라	-1652
▁싶지	-1653
▁칼로	-1654
▁뒤져서	-1655
▁쓰레기	-1656
▁이번주	-1657
▁있다고	-1658
▁왜이렇게	-1659
▁이러지마	-1660
▁놓	-1661
▁붙	-1662
▁총	-1663
▁털	-1664
거지	-1665
걸로	-1666
드폰	-1667
리를	-1668
▁궁금	-1669
▁대답	-1670
▁대화	-1671
▁되는	-1672
▁애가	-1673
▁연차	-1674
▁풀어	-1675
소리야	-1676
핸드폰	-1677
▁그러고	-1678
▁아이고	-1679
▁이러지	-1680
▁숨	-1681
▁틀	-1682
건가	-1683
▁때려	-1684
▁않았	-1685
▁없을	-1686
▁영상	-1687
▁이자	-1688
라니까	-1689
오라고	-1690
하지만	-1691
▁다음주	-1692
▁없잖아	-1693
▁친구야	-1694
▁핸드폰	-1695
▁뛰	-1696
▁폭	-1697
려면	-1698
버려	-1699
해줘	-1700
▁걸어	-1701
▁됐어	-1702
▁야근	-1703
▁일은	-1704
▁있었	-1705
▁책임	-1706
인데요	-1707
▁주시면	-1708
▁하는거야	-1709
▁메	-1710
▁복	-1711
▁은	-1712
기도	-1713
번호	-1714
시다	-1715
했다	-1716
▁부족	-1717
▁뽑아	-1718
겠는데	-1719
▁손가락	-1720
▁한다고	-1721
드리겠습니다	-1722
▁샀	-1723
▁티	-1724
보면	-1725
신지	-1726
이는	-1727
줄래	-1728
▁가자	-1729
▁건데	-1730
▁능력	-1731
▁지난	-1732
▁피해	-1733
▁현금	-1734
▁이대리	-1735
▁이래서	-1736
▁걔	-1737
▁굴	-1738
▁뚱	-1739
▁솔	-1740
▁앉	-1741
▁찔	-1742
▁창	-1743
거면	-1744
대한	-1745
씨는	-1746
이가	-1747
▁너를	-1748
▁넘어	-1749
▁보자	-1750
▁수도	-1751
▁않을	-1752
▁어렵	-1753
▁언니	-1754
이잖아	-1755
▁말하면	-1756
▁무슨일	-1757
▁살려줘	-1758
▁아니지	-1759
▁아무도	-1760
▁깨	-1761
▁쓴	-1762
▁표	-1763
겨서	-1764
께서	-1765
으신	-1766
▁맛있	-1767
▁신발	-1768
▁쳐맞	-1769
▁출근	-1770
▁해도	-1771
▁괜찮아	-1772
▁그런게	-1773
▁다음에	-1774
▁들어가	-1775
▁못하면	-1776
▁할게요	-1777
▁밀	-1778
▁잃	-1779
▁패	-1780
▁교육	-1781
▁나왔	-1782
▁돈좀	-1783
▁만만	-1784
▁믿어	-1785
▁요새	-1786
▁평생	-1787
십니다	-1788
▁애들아	-1789
▁주머니	-1790
▁무슨일이	-1791
▁멍	-1792
▁벗	-1793
▁항	-1794
인다	-1795
할때	-1796
했지	-1797
▁생긴	-1798
▁오랜	-1799
▁하냐	-1800
▁하자	-1801
▁한대	-1802
▁아닌가	-1803
▁아무리	-1804
▁어딨어	-1805
▁우리집	-1806
▁이러면	-1807
▁최대한	-1808
▁회사가	-1809
▁이러세요	-1810
길래	-1811
장이	-1812
젝트	-1813
▁갔다	-1814
▁다야	-1815
▁바꿔	-1816
▁바쁜	-1817
▁분명	-1818
▁비싼	-1819
▁사정	-1820
▁어휴	-1821
▁엄청	-1822
▁죽는	-1823
▁지켜	-1824
기전에	-1825
었어요	-1826
▁괴롭히	-1827
▁싶으면	-1828
▁오랜만	-1829
▁저희가	-1830
▁하나도	-1831
▁합니다	-1832
▁백	-1833
▁범	-1834
나보	-1835
드렸	-1836
라서	-1837
비가	-1838
없는	-1839
자나	-1840
▁마무	-1841
▁비밀	-1842
▁올려	-1843
▁할때	-1844
으면서	-1845
▁냄새나	-1846
▁말라고	-1847
▁말하는	-1848
▁싫은데	-1849
▁좋은말	-1850
▁주제에	-1851
었습니다	-1852
했습니다	-1853
▁알겠어요	-1854
▁없는데요	-1855
▁여자친구	-1856
▁씻	-1857
▁젊	-1858
▁폰	-1859
▁헛	-1860
지않	-1861
▁나쁜	-1862
▁나온	-1863
▁답답	-1864
▁데려	-1865
▁되게	-1866
▁방법	-1867
▁비싸	-1868
▁솔직	-1869
▁이딴	-1870
▁이럴	-1871
▁청소	-1872
▁할게	-1873
▁형이	-1874
▁회의	-1875
▁데리고	-1876
▁마음에	-1877
▁모르는	-1878
▁미쳤어	-1879
▁사람을	-1880
▁중요한	-1881
▁죄송하면	-1882
▁뜨	-1883
▁삼	-1884
▁왕	-1885
기만	-1886
들도	-1887
봐라	-1888
지게	-1889
▁그것	-1890
▁놀리	-1891
▁돌아	-1892
▁때리	-1893
▁만들	-1894
▁맘에	-1895
▁뭐냐	-1896
▁바빠	-1897
▁수정	-1898
▁앞에	-1899
▁어서	-1900
있어요	-1901
주시면	-1902
할게요	-1903
▁안되는	-1904
▁할머니	-1905
드립니다	-1906
▁잘못했어	-1907
▁죽여버릴	-1908
▁프로젝트	-1909
▁회사에서	-1910
오겠습니다	-1911
▁넵	-1912
▁엉	-1913
▁질	-1914
▁쯧	-1915
▁흑	-1916
다녀	-1917
먹고	-1918
시켜	-1919
을래	-1920
▁각오	-1921
▁계좌	-1922
▁멍청	-1923
▁배달	-1924
▁안들	-1925
▁오래	-1926
▁임마	-1927
▁주고	-1928
▁하셨	-1929
▁못알아	-1930
▁잠시만	-1931
▁떼	-1932
▁면	-1933
▁법	-1934
▁뿌	-1935
▁싹	-1936
▁철	-1937
기를	-1938
수도	-1939
지를	-1940
▁내말	-1941
▁네네	-1942
▁받은	-1943
▁부분	-1944
▁서로	-1945
▁서류	-1946
▁역시	-1947
▁운전	-1948
▁인정	-1949
▁있다	-1950
▁제일	-1951
▁죽이	-1952
▁항상	-1953
하시면	-1954
▁누구야	-1955
▁돌아가	-1956
▁사정이	-1957
▁싶어서	-1958
▁왜이래	-1959
▁이번엔	-1960
드릴게요	-1961
▁엄마한테	-1962
▁여보세요	-1963
▁깔	-1964
▁끼	-1965
▁떠	-1966
▁며	-1967
▁종	-1968
가져	-1969
과장	-1970
봐요	-1971
아냐	-1972
인이	-1973
▁가면	-1974
▁말야	-1975
▁못할	-1976
▁사주	-1977
▁일부	-1978
▁있고	-1979
지말고	-1980
▁같아서	-1981
▁다시는	-1982
▁달라고	-1983
▁싫다고	-1984
▁죽이고	-1985
▁화장실	-1986
▁안됩니다	-1987
▁곤	-1988
▁독	-1989
▁리	-1990
▁쉽	-1991
겠니	-1992
기로	-1993
느라	-1994
당히	-1995
든가	-1996
있는	-1997
하셨	-1998
▁갚아	-1999
▁그쪽	-2000
▁매번	-2001
▁미리	-2002
▁방금	-2003
▁사용	-2004
▁사장	-2005
▁야야	-2006
▁집안	-2007
▁쳐다	-2008
▁거에요	-2009
▁건들지	-2010
▁말아줘	-2011
▁맞아야	-2012
▁솔직히	-2013
▁싫어요	-2014
▁아가씨	-2015
▁아빠가	-2016
▁애들이	-2017
▁해주세요	-2018
나가	-2019
먹어	-2020
볼게	-2021
신거	-2022
한게	-2023
▁금방	-2024
▁말귀	-2025
▁시작	-2026
▁시켜	-2027
▁이해	-2028
▁젊은	-2029
▁하여	-2030
▁한테	-2031
▁해라	-2032
새끼야	-2033
▁그것도	-2034
▁똑같이	-2035
▁보니까	-2036
▁상사가	-2037
▁왜이러	-2038
▁봐주세요	-2039
▁안되는데	-2040
▁이런식으로	-2041
▁군	-2042
▁묻	-2043
▁채	-2044
▁판	-2045
라니	-2046
러운	-2047
이프	-2048
▁건가	-2049
▁걸로	-2050
▁고소	-2051
▁곤란	-2052
▁나올	-2053
▁대가	-2054
▁뚱뚱	-2055
▁범죄	-2056
▁봐라	-2057
▁사라	-2058
▁싶냐	-2059
▁우린	-2060
▁자료	-2061
▁작성	-2062
▁지워	-2063
▁직접	-2064
▁해줄	-2065
들한테	-2066
했잖아	-2067
▁마무리	-2068
▁못생긴	-2069
▁문제가	-2070
▁아버지	-2071
▁장난해	-2072
▁편하게	-2073
▁하라는	-2074
▁학원비	-2075
▁사람이야	-2076
▁안될까요	-2077
▁끊	-2078
▁변	-2079
수야	-2080
시키	-2081
야해	-2082
었다	-2083
▁말한	-2084
▁몸이	-2085
▁시계	-2086
▁시킨	-2087
▁재수	-2088
▁주문	-2089
이니까	-2090
인가요	-2091
하시는	-2092
해야지	-2093
했다고	-2094
했어요	-2095
▁그랬어	-2096
▁먹으면	-2097
▁어머님	-2098
▁이번달	-2099
▁이유가	-2100
▁하니까	-2101
▁하루만	-2102
▁그러는데	-2103
▁아니라고	-2104
▁하지말고	-2105
▁죄송하지만	-2106
▁늘	-2107
▁졸	-2108
▁체	-2109
▁포	-2110
어봐	-2111
움직	-2112
이상	-2113
초에	-2114
▁꼬라	-2115
▁다닐	-2116
▁바보	-2117
▁사는	-2118
▁아내	-2119
▁여러	-2120
▁잡아	-2121
▁진작	-2122
▁형님	-2123
는다고	-2124
▁그정도	-2125
▁될까요	-2126
▁못생겼	-2127
▁생각이	-2128
▁얼굴이	-2129
▁이런거	-2130
▁저렇게	-2131
▁친구가	-2132
▁할거야	-2133
▁어쩌라고	-2134
▁말아주세요	-2135
▁뒷	-2136
▁썼	-2137
▁헐	-2138
것같	-2139
데요	-2140
부로	-2141
여서	-2142
이니	-2143
할거	-2144
▁가지	-2145
▁고생	-2146
▁관심	-2147
▁남의	-2148
▁모든	-2149
▁무섭	-2150
▁비켜	-2151
▁사고	-2152
▁안내	-2153
▁어른	-2154
▁인터	-2155
▁지랄	-2156
한거야	-2157
▁그동안	-2158
▁그치만	-2159
▁누군지	-2160
▁빌려주	-2161
▁시간에	-2162
▁아니긴	-2163
▁안그러	-2164
▁안될까	-2165
▁안들어	-2166
▁안하고	-2167
▁적당히	-2168
▁아닌가요	-2169
▁언제까지	-2170
▁지금까지	-2171
▁친구끼리	-2172
▁왜그러세요	-2173
▁뺏	-2174
▁퍼	-2175
만큼	-2176
엄마	-2177
으시	-2178
인줄	-2179
정신	-2180
▁감히	-2181
▁꺼내	-2182
▁내꺼	-2183
▁받고	-2184
▁봐봐	-2185
▁부러	-2186
▁부서	-2187
▁사원	-2188
▁설마	-2189
▁아휴	-2190
▁옷이	-2191
▁있네	-2192
▁죽자	-2193
▁챙겨	-2194
▁천원	-2195
거든요	-2196
버리고	-2197
있는데	-2198
할거야	-2199
▁가져다	-2200
▁기분나	-2201
▁되는거	-2202
▁말대답	-2203
▁모르겠	-2204
▁못하는	-2205
▁빌려줄	-2206
▁애초에	-2207
▁어이가	-2208
▁원하는	-2209
▁이상한	-2210
하시네요	-2211
▁부모님이	-2212
▁사람들이	-2213
▁사회생활	-2214
▁돌려주세요	-2215
▁마지막이야	-2216
▁검	-2217
▁낳	-2218
▁숙	-2219
▁훔	-2220
름이	-2221
리게	-2222
없이	-2223
▁계산	-2224
▁고통	-2225
▁나만	-2226
▁나빠	-2227
▁눈에	-2228
▁드리	-2229
▁듣고	-2230
▁맞지	-2231
▁며칠	-2232
▁살고	-2233
▁아님	-2234
▁않은	-2235
▁일처	-2236
▁정보	-2237
▁편의	-2238
거라고	-2239
새끼가	-2240
시간에	-2241
었잖아	-2242
▁싶은데	-2243
▁어떡해	-2244
▁이것도	-2245
▁잠깐만	-2246
▁부탁이야	-2247
▁죄송한데	-2248
▁내놓으라고	-2249
▁멋	-2250
▁터	-2251
▁핑	-2252
거리	-2253
생각	-2254
줘요	-2255
▁데이	-2256
▁모른	-2257
▁몰랐	-2258
▁무사	-2259
▁버스	-2260
▁번호	-2261
▁수술	-2262
▁어딜	-2263
▁옆에	-2264
▁왕따	-2265
▁용서	-2266
▁위험	-2267
▁제출	-2268
▁봤는데	-2269
▁안하면	-2270
▁여기가	-2271
▁일부러	-2272
▁편의점	-2273
▁아닙니까	-2274
▁짜증나게	-2275
▁농	-2276
▁악	-2277
▁윗	-2278
▁쥐	-2279
구로	-2280
달라	-2281
든지	-2282
수씨	-2283
인턴	-2284
▁나갈	-2285
▁도움	-2286
▁뻔뻔	-2287
▁안에	-2288
▁올라	-2289
▁우습	-2290
▁저런	-2291
신가요	-2292
▁가세요	-2293
▁그러냐	-2294
▁끝까지	-2295
▁당연히	-2296
▁못하고	-2297
▁와이프	-2298
▁있나요	-2299
▁지나치	-2300
는거에요	-2301
▁미안한데	-2302
▁있어서요	-2303
▁죽고싶어	-2304
▁멈	-2305
▁쪼	-2306
되면	-2307
르고	-2308
무실	-2309
볼까	-2310
아빠	-2311
와라	-2312
주임	-2313
▁글쎄	-2314
▁기사	-2315
▁나대	-2316
▁뒤질	-2317
▁많은	-2318
▁맞자	-2319
▁선택	-2320
▁싶은	-2321
▁우와	-2322
▁웃긴	-2323
▁잘해	-2324
▁저리	-2325
▁전부	-2326
▁참나	-2327
▁한다	-2328
때까지	-2329
말라고	-2330
▁냄새가	-2331
▁닥치고	-2332
▁시끄럽	-2333
▁안그래	-2334
▁애들은	-2335
▁여기요	-2336
▁제정신	-2337
▁그렇다고	-2338
▁부탁드립니다	-2339
▁썩	-2340
▁잊	-2341
▁찢	-2342
가봐	-2343
나서	-2344
따박	-2345
시지	-2346
식이	-2347
으러	-2348
▁그따	-2349
▁급한	-2350
▁따박	-2351
▁몇번	-2352
▁뭔가	-2353
▁소중	-2354
▁주변	-2355
▁한거	-2356
다고요	-2357
하려고	-2358
해서요	-2359
▁건드리	-2360
▁김사원	-2361
▁다니는	-2362
▁무슨말	-2363
▁시끄러	-2364
▁싸가지	-2365
▁인터넷	-2366
▁일이야	-2367
▁하는게	-2368
▁함부로	-2369
▁다음부터	-2370
▁따박따박	-2371
▁어떻게든	-2372
▁처음부터	-2373
▁신고할거야	-2374
▁잘못했어요	-2375
▁죽여버린다	-2376
▁깜	-2377
▁짤	-2378
▁튀	-2379
▁홍	-2380
격이	-2381
기고	-2382
는가	-2383
래요	-2384
아야	-2385
없네	-2386
있지	-2387
자가	-2388
준다	-2389
지면	-2390
▁거래	-2391
▁고맙	-2392
▁괜히	-2393
▁남친	-2394
▁너의	-2395
▁놀러	-2396
▁도망	-2397
▁딸이	-2398
▁마련	-2399
▁부당	-2400
▁손에	-2401
▁씨발	-2402
▁알면	-2403
▁어쨌	-2404
▁예민	-2405
▁입사	-2406
▁찔러	-2407
▁최선	-2408
▁취소	-2409
▁한달	-2410
▁거잖아	-2411
▁내놔라	-2412
▁너네집	-2413
▁몰라서	-2414
▁생겨서	-2415
▁알아요	-2416
▁어려운	-2417
▁죽는다	-2418
▁준비해	-2419
▁하여튼	-2420
▁헤어져	-2421
▁이러시면	-2422
▁회사생활	-2423
▁그러는거야	-2424
▁말씀이신지	-2425
▁무슨소리야	-2426
▁아니라니까	-2427
▁낮	-2428
▁딴	-2429
▁밖	-2430
▁옮	-2431
까봐	-2432
라리	-2433
모님	-2434
보니	-2435
봐도	-2436
어야	-2437
▁그딴	-2438
▁다신	-2439
▁도둑	-2440
▁동안	-2441
▁듣기	-2442
▁들었	-2443
▁뛰어	-2444
▁만드	-2445
▁말은	-2446
▁모를	-2447
▁빠져	-2448
▁사기	-2449
▁사다	-2450
▁사오	-2451
▁소개	-2452
▁쉽게	-2453
▁않고	-2454
▁이혼	-2455
▁임신	-2456
▁잔말	-2457
▁죽기	-2458
▁핑계	-2459
겠다는	-2460
보세요	-2461
야겠다	-2462
준다고	-2463
▁그래야	-2464
▁그러시	-2465
▁나와서	-2466
▁말하지	-2467
▁목소리	-2468
▁뭐하는	-2469
▁선배님	-2470
▁일로와	-2471
▁제가요	-2472
▁지금은	-2473
▁차라리	-2474
▁돌려줄게	-2475
▁마음대로	-2476
▁사람한테	-2477
▁닮	-2478
▁충	-2479
▁흐	-2480
아버	-2481
우면	-2482
을게	-2483
주지	-2484
질러	-2485
했냐	-2486
▁가능	-2487
▁그지	-2488
▁기대	-2489
▁꺼지	-2490
▁놓고	-2491
▁닥쳐	-2492
▁말만	-2493
▁목걸	-2494
▁받았	-2495
▁배가	-2496
▁배우	-2497
▁얘가	-2498
▁없나	-2499
▁움직	-2500
▁이봐	-2501
▁전달	-2502
▁쪽팔	-2503
▁치마	-2504
▁한국	-2505
▁화나	-2506
건데요	-2507
것같아	-2508
등학교	-2509
린다고	-2510
하시고	-2511
▁건가요	-2512
▁눈치가	-2513
▁더이상	-2514
▁들어온	-2515
▁똑같은	-2516
▁많아서	-2517
▁맞잖아	-2518
▁오늘도	-2519
▁이번만	-2520
▁하려고	-2521
▁했다고	-2522
▁좋은말로	-2523
▁꾸	-2524
▁낼	-2525
▁덜	-2526
▁땅	-2527
▁땡	-2528
▁밝	-2529
들고	-2530
말야	-2531
야돼	-2532
어도	-2533
째야	-2534
▁뭐래	-2535
▁뭐해	-2536
▁믿고	-2537
▁바꾸	-2538
▁보이	-2539
▁빌리	-2540
▁아나	-2541
▁알어	-2542
▁없냐	-2543
▁에휴	-2544
▁열받	-2545
▁이사	-2546
▁이젠	-2547
▁입을	-2548
▁잘됐	-2549
▁쯧쯧	-2550
▁피곤	-2551
더라고	-2552
없어요	-2553
으시면	-2554
입니까	-2555
줬더니	-2556
줬잖아	-2557
▁가져오	-2558
▁거예요	-2559
▁겁니다	-2560
▁그러는	-2561
▁그러니	-2562
▁그런말	-2563
▁기회를	-2564
▁들어오	-2565
▁따라와	-2566
▁빌려간	-2567
▁아들이	-2568
▁아파트	-2569
▁약속이	-2570
▁오빠가	-2571
▁웃기네	-2572
▁이걸로	-2573
▁있을까	-2574
▁휴가를	-2575
▁안되겠다	-2576
▁이따위로	-2577
▁이리와봐	-2578
▁주머니에	-2579
▁죽여버리	-2580
▁시키는대로	-2581
▁짧	-2582
▁컴	-2583
거같	-2584
되는	-2585
때는	-2586
올게	-2587
있냐	-2588
카락	-2589
하실	-2590
▁가라	-2591
▁간다	-2592
▁깨끗	-2593
▁나서	-2594
▁누나	-2595
▁둘이	-2596
▁뒤져	-2597
▁맞는	-2598
▁바쁘	-2599
▁억울	-2600
▁여친	-2601
▁오면	-2602
▁이기	-2603
▁인간	-2604
▁일만	-2605
▁잘라	-2606
▁찢어	-2607
▁착각	-2608
▁틀린	-2609
▁팔아	-2610
▁후회	-2611
보라고	-2612
선생님	-2613
을거야	-2614
▁내려놔	-2615
▁못하게	-2616
▁받아서	-2617
▁사람은	-2618
▁생각을	-2619
▁어디가	-2620
▁이리와	-2621
▁좋겠다	-2622
▁지난번	-2623
▁하라면	-2624
▁하시면	-2625
▁말대꾸야	-2626
▁안그러면	-2627
▁죽고싶냐	-2628
▁그만하세요	-2629
▁진정하세요	-2630
▁규	-2631
▁늙	-2632
▁든	-2633
▁레	-2634
말아	-2635
먹을	-2636
볼래	-2637
성이	-2638
진다	-2639
평가	-2640
▁가난	-2641
▁가르	-2642
▁계약	-2643
▁구매	-2644
▁근무	-2645
▁늦게	-2646
▁동네	-2647
▁똑같	-2648
▁멈춰	-2649
▁배고	-2650
▁봐도	-2651
▁봐주	-2652
▁생기	-2653
▁쓰면	-2654
▁어쭈	-2655
▁이쁜	-2656
▁해고	-2657
나보네	-2658
보인다	-2659
하다는	-2660
▁갚을게	-2661
▁거기서	-2662
▁다름이	-2663
▁맞을래	-2664
▁무서운	-2665
▁미친놈	-2666
▁박대리	-2667
▁부탁해	-2668
▁사무실	-2669
▁저리가	-2670
▁정신을	-2671
▁찾아가	-2672
▁힘들게	-2673
야하는데	-2674
하지말고	-2675
▁같은데요	-2676
▁머리카락	-2677
▁생각해서	-2678
▁아닌데요	-2679
▁않습니까	-2680
▁어쩔건데	-2681
▁학교에서	-2682
▁했습니다	-2683
▁낸	-2684
▁밑	-2685
▁십	-2686
▁암	-2687
렸네	-2688
리야	-2689
자는	-2690
준거	-2691
하긴	-2692
▁구라	-2693
▁다닌	-2694
▁멀쩡	-2695
▁모양	-2696
▁못차	-2697
▁손목	-2698
▁아픈	-2699
▁여긴	-2700
▁자신	-2701
▁작업	-2702
▁주는	-2703
▁진심	-2704
▁짓을	-2705
▁합의	-2706
▁휴대	-2707
건가요	-2708
사람이	-2709
아버지	-2710
이라서	-2711
▁그런건	-2712
▁돈으로	-2713
▁되겠네	-2714
▁뒤질래	-2715
▁보이지	-2716
▁아는데	-2717
▁안되지	-2718
▁안좋아	-2719
▁엄마는	-2720
▁업무가	-2721
▁이러는	-2722
▁이쁘다	-2723
▁일이나	-2724
▁자식이	-2725
▁잘못한	-2726
▁저희는	-2727
▁해줄게	-2728
있습니다	-2729
줄테니까	-2730
▁가져간다	-2731
▁그렇지만	-2732
▁안되겠네	-2733
▁걍	-2734
▁님	-2735
▁덕	-2736
▁라	-2737
▁윤	-2738
가면	-2739
갔다	-2740
그러	-2741
년이	-2742
대가	-2743
동생	-2744
부름	-2745
▁가까	-2746
▁같네	-2747
▁기어	-2748
▁뒤에	-2749
▁따로	-2750
▁딸은	-2751
▁때는	-2752
▁분위	-2753
▁시정	-2754
▁씻고	-2755
▁아아	-2756
▁어쩐	-2757
▁엉망	-2758
▁왔어	-2759
▁으악	-2760
▁좋지	-2761
▁지은	-2762
▁허락	-2763
기라도	-2764
버릴까	-2765
았는데	-2766
하면서	-2767
▁것이지	-2768
▁급하게	-2769
▁나가서	-2770
▁데이트	-2771
▁맞아요	-2772
▁부르셨	-2773
▁선배가	-2774
▁얼굴도	-2775
▁이번이	-2776
▁입니다	-2777
▁자네는	-2778
▁좋아서	-2779
▁진정해	-2780
▁하셔서	-2781
▁하시는	-2782
▁한거야	-2783
하십니까	-2784
▁너때문에	-2785
▁시끄럽고	-2786
▁안된다고	-2787
▁있을까요	-2788
▁보내주세요	-2789
▁잘못했습니다	-2790
▁꽤	-2791
▁녹	-2792
▁삭	-2793
▁쏴	-2794
가고	-2795
던거	-2796
들을	-2797
머리	-2798
받고	-2799
봤자	-2800
비스	-2801
사이	-2802
신데	-2803
아닌	-2804
안에	-2805
전히	-2806
한번	-2807
할래	-2808
▁개월	-2809
▁기본	-2810
▁내용	-2811
▁너나	-2812
▁넣어	-2813
▁놀아	-2814
▁놈이	-2815
▁되나	-2816
▁많네	-2817
▁숙제	-2818
▁시발	-2819
▁시비	-2820
▁아네	-2821
▁아닐	-2822
▁안갚	-2823
▁안드	-2824
▁어느	-2825
▁예약	-2826
▁오지	-2827
▁웃겨	-2828
▁진행	-2829
▁차가	-2830
▁차려	-2831
▁창피	-2832
▁키우	-2833
▁하니	-2834
▁흑흑	-2835
겠네요	-2836
나봐요	-2837
았잖아	-2838
하신거	-2839
▁다같이	-2840
▁대가리	-2841
▁더러워	-2842
▁돼지야	-2843
▁말씀을	-2844
▁말이지	-2845
▁모르고	-2846
▁목걸이	-2847
▁미쳤나	-2848
▁사과해	-2849
▁아니냐	-2850
▁아이가	-2851
▁어디야	-2852
▁어려울	-2853
▁예쁘다	-2854
▁죽으면	-2855
▁천만원	-2856
▁최선을	-2857
▁하잖아	-2858
▁환불해	-2859
▁회사를	-2860
▁휴대폰	-2861
▁그래그래	-2862
▁신고하기	-2863
▁싫으니까	-2864
▁없다니까	-2865
▁없으니까	-2866
▁죽일거야	-2867
▁빌려달라고	-2868
▁땐	-2869
▁베	-2870
▁앗	-2871
▁탈	-2872
나면	-2873
뜨려	-2874
려요	-2875
렸어	-2876
리기	-2877
스크	-2878
안돼	-2879
야되	-2880
없고	-2881
였어	-2882
영상	-2883
오냐	-2884
으셨	-2885
일은	-2886
지야	-2887
한지	-2888
희씨	-2889
▁가슴	-2890
▁겁나	-2891
▁꼬박	-2892
▁내고	-2893
▁넘겨	-2894
▁농담	-2895
▁다녔	-2896
▁다르	-2897
▁대박	-2898
▁만든	-2899
▁만큼	-2900
▁말했	-2901
▁망치	-2902
▁무엇	-2903
▁방해	-2904
▁보낼	-2905
▁보지	-2906
▁불만	-2907
▁불쾌	-2908
▁싫다	-2909
▁씨는	-2910
▁아끼	-2911
▁아시	-2912
▁어딘	-2913
▁의심	-2914
▁이뻐	-2915
▁잃어	-2916
▁찌질	-2917
▁추가	-2918
▁축하	-2919
▁치료	-2920
▁할래	-2921
드려요	-2922
라고요	-2923
셔야죠	-2924
이라는	-2925
이라니	-2926
하겠어	-2927
▁가만안	-2928
▁가진거	-2929
▁각오해	-2930
▁길동씨	-2931
▁내놔봐	-2932
▁다니지	-2933
▁문제야	-2934
▁병원비	-2935
▁사라져	-2936
▁사생활	-2937
▁살려주	-2938
▁아니다	-2939
▁안보여	-2940
▁안주면	-2941
▁않아요	-2942
▁알겠지	-2943
▁어려워	-2944
▁여기에	-2945
▁이정도	-2946
▁일하는	-2947
▁차장님	-2948
▁하고싶	-2949
▁빌려주면	-2950
▁생각하고	-2951
▁좋아하는	-2952
▁좋을거야	-2953
▁줄테니까	-2954
▁할아버지	-2955
보겠습니다	-2956
▁말씀이세요	-2957
▁왜이러세요	-2958
▁환불해주세요	-2959
▁값	-2960
▁끌	-2961
▁낫	-2962
▁둬	-2963
▁택	-2964
건지	-2965
겠나	-2966
달에	-2967
라구	-2968
라야	-2969
받아	-2970
보게	-2971
보이	-2972
보지	-2973
빌려	-2974
오는	-2975
줄께	-2976
진짜	-2977
치는	-2978
하죠	-2979
하하	-2980
▁거울	-2981
▁거의	-2982
▁거절	-2983
▁결정	-2984
▁고졸	-2985
▁고치	-2986
▁깔끔	-2987
▁꼬리	-2988
▁대충	-2989
▁돈만	-2990
▁동기	-2991
▁되면	-2992
▁막내	-2993
▁맞다	-2994
▁맞춰	-2995
▁매점	-2996
▁무릎	-2997
▁발표	-2998
▁밥도	-2999
▁밥먹	-3000
▁불법	-3001
▁빌린	-3002
▁아깝	-3003
▁어어	-3004
▁역겨	-3005
▁오는	-3006
▁자랑	-3007
▁주라	-3008
▁주차	-3009
▁쪼잔	-3010
▁하긴	-3011
▁허튼	-3012
▁환자	-3013
릴거야	-3014
으려고	-3015
▁그런가	-3016
▁그만두	-3017
▁그만둬	-3018
▁나쁘게	-3019
▁되나요	-3020
▁되는데	-3021
▁때까지	-3022
▁몰라요	-3023
▁상황이	-3024
▁소리를	-3025
▁심하다	-3026
▁아세요	-3027
▁안되죠	-3028
▁알아듣	-3029
▁애들도	-3030
▁우리도	-3031
▁자기가	-3032
▁잘하는	-3033
▁조심해	-3034
▁좋겠어	-3035
▁좋은데	-3036
▁죽을래	-3037
▁진짜야	-3038
▁헛소리	-3039
셨잖아요	-3040
▁그것만은	-3041
▁꺼지라고	-3042
▁말씀해주	-3043
▁무슨소리	-3044
▁생각하지	-3045
▁있으니까	-3046
▁잘못한거	-3047
▁그만하라고	-3048
▁남자친구랑	-3049
▁도와주세요	-3050
▁무슨말이야	-3051
▁아니잖아요	-3052
▁어렵습니다	-3053
▁잘못했는데	-3054
▁기다려주세요	-3055
▁해보겠습니다	-3056
▁노력하겠습니다	-3057
▁납	-3058
▁닦	-3059
▁던	-3060
▁뜯	-3061
▁뜻	-3062
▁빡	-3063
▁송	-3064
▁육	-3065
▁접	-3066
▁푸	-3067
녀석	-3068
당무	-3069
드린	-3070
랬지	-3071
르면	-3072
른다	-3073
보여	-3074
선생	-3075
수있	-3076
안해	-3077
었지	-3078
원이	-3079
일을	-3080
줬어	-3081
했네	-3082
▁가정	-3083
▁거슬	-3084
▁겨우	-3085
▁군대	-3086
▁기간	-3087
▁나눠	-3088
▁노트	-3089
▁담당	-3090
▁대단	-3091
▁더럽	-3092
▁독약	-3093
▁동료	-3094
▁뒤지	-3095
▁만났	-3096
▁먹는	-3097
▁못가	-3098
▁벌어	-3099
▁보니	-3100
▁부터	-3101
▁불렀	-3102
▁비행	-3103
▁상대	-3104
▁설명	-3105
▁성적	-3106
▁순간	-3107
▁스타	-3108
▁써야	-3109
▁아유	-3110
▁안통	-3111
▁않냐	-3112
▁열어	-3113
▁올리	-3114
▁이틀	-3115
▁점수	-3116
▁죽은	-3117
▁지옥	-3118
▁참석	-3119
▁참아	-3120
▁책상	-3121
▁체육	-3122
▁치고	-3123
▁치워	-3124
▁힘든	-3125
다니깐	-3126
봤는데	-3127
줄알아	-3128
▁가져갈	-3129
▁꼬라지	-3130
▁나보고	-3131
▁돈없어	-3132
▁된다고	-3133
▁됩니다	-3134
▁때마다	-3135
▁마스크	-3136
▁마시고	-3137
▁받아야	-3138
▁보고싶	-3139
▁사람도	-3140
▁서비스	-3141
▁식으로	-3142
▁아니니	-3143
▁얘기를	-3144
▁우리는	-3145
▁있으신	-3146
▁좋은거	-3147
▁죄송할	-3148
▁진짜로	-3149
▁쳐맞고	-3150
▁학교에	-3151
▁홍당무	-3152
▁놀리지마	-3153
▁다른사람	-3154
▁당연하지	-3155
▁무슨말씀	-3156
▁미안하네	-3157
▁시끄러워	-3158
▁신고하면	-3159
▁애들한테	-3160
▁원하는게	-3161
▁이새끼야	-3162
▁잠시만요	-3163
▁장난하냐	-3164
▁헤어지면	-3165
▁힘들어요	-3166
▁괜찮습니다	-3167
▁이딴식으로	-3168
▁드리겠습니다	-3169
▁신고할거에요	-3170
▁시정하겠습니다	-3171
▁띄	-3172
▁얌	-3173
▁엥	-3174
▁윽	-3175
갔어	-3176
난다	-3177
내고	-3178
되지	-3179
둥이	-3180
디어	-3181
려나	-3182
력이	-3183
빨리	-3184
을거	-3185
이란	-3186
정보	-3187
죄로	-3188
체가	-3189
치게	-3190
퓨터	-3191
▁결제	-3192
▁그날	-3193
▁그리	-3194
▁금액	-3195
▁내리	-3196
▁노래	-3197
▁다행	-3198
▁덕분	-3199
▁됐지	-3200
▁두번	-3201
▁맞기	-3202
▁몰래	-3203
▁뭔지	-3204
▁반말	-3205
▁봐서	-3206
▁분이	-3207
▁사업	-3208
▁시켰	-3209
▁신기	-3210
▁아오	-3211
▁알겠	-3212
▁예뻐	-3213
▁오냐	-3214
▁의견	-3215
▁입어	-3216
▁있던	-3217
▁있죠	-3218
▁주의	-3219
▁지키	-3220
▁판단	-3221
▁표정	-3222
▁하게	-3223
▁할거	-3224
겁니까	-3225
보니까	-3226
볼게요	-3227
시는거	-3228
없는데	-3229
었으면	-3230
▁겁니까	-3231
▁경찰서	-3232
▁계좌로	-3233
▁그대로	-3234
▁동영상	-3235
▁됐어요	-3236
▁모르게	-3237
▁목숨은	-3238
▁물어보	-3239
▁뭐하냐	-3240
▁박사원	-3241
▁살려만	-3242
▁세상에	-3243
▁심부름	-3244
▁아닌거	-3245
▁알려주	-3246
▁알잖아	-3247
▁웃긴다	-3248
▁위해서	-3249
▁이것좀	-3250
▁이러고	-3251
▁있어야	-3252
▁자기야	-3253
▁표정이	-3254
▁하나만	-3255
▁합니까	-3256
▁건들지마	-3257
▁그런데요	-3258
▁맞습니다	-3259
▁불쌍하다	-3260
▁이번에도	-3261
▁일로와봐	-3262
▁정신차려	-3263
▁정신차리	-3264
▁죽는거야	-3265
▁필요해서	-3266
▁했잖아요	-3267
▁그런식으로	-3268
▁다음주까지	-3269
▁긴	-3270
▁꿀	-3271
▁논	-3272
▁똥	-3273
▁센	-3274
▁징	-3275
▁쳤	-3276
▁탓	-3277
▁테	-3278
▁투	-3279
▁팩	-3280
▁헉	-3281
▁희	-3282
교육	-3283
길동	-3284
내로	-3285
리카	-3286
보기	-3287
순히	-3288
아아	-3289
았네	-3290
어울	-3291
없다	-3292
▁가시	-3293
▁갈게	-3294
▁결과	-3295
▁고개	-3296
▁고민	-3297
▁공짜	-3298
▁관리	-3299
▁귀찮	-3300
▁그땐	-3301
▁내돈	-3302
▁대해	-3303
▁될까	-3304
▁맡겨	-3305
▁반지	-3306
▁받는	-3307
▁보게	-3308
▁보상	-3309
▁복사	-3310
▁봐야	-3311
▁수준	-3312
▁수진	-3313
▁신상	-3314
▁심한	-3315
▁안맞	-3316
▁앉아	-3317
▁않나	-3318
▁없애	-3319
▁오백	-3320
▁올린	-3321
▁우선	-3322
▁우유	-3323
▁일정	-3324
▁좀만	-3325
▁주신	-3326
▁줘야	-3327
▁지가	-3328
▁지우	-3329
▁차리	-3330
▁카톡	-3331
▁해와	-3332
▁했냐	-3333
▁했다	-3334
러워서	-3335
았다고	-3336
었다고	-3337
▁괴롭혀	-3338
▁그거야	-3339
▁기다리	-3340
▁넘어가	-3341
▁노트북	-3342
▁대학교	-3343
▁더럽게	-3344
▁맘대로	-3345
▁멍청한	-3346
▁미쳤냐	-3347
▁바빠서	-3348
▁병원에	-3349
▁보내줘	-3350
▁보세요	-3351
▁비싸게	-3352
▁사실을	-3353
▁사진을	-3354
▁아니죠	-3355
▁아무튼	-3356
▁안가져	-3357
▁안되요	-3358
▁어울리	-3359
▁없으니	-3360
▁우리랑	-3361
▁정신이	-3362
▁지금도	-3363
▁컴퓨터	-3364
▁했어요	-3365
▁했으면	-3366
▁휴가는	-3367
다니까요	-3368
왔습니다	-3369
▁내일부터	-3370
▁말이에요	-3371
▁말하는데	-3372
▁맞는데요	-3373
▁뭐라구요	-3374
▁미안해요	-3375
▁상관이야	-3376
▁선생님이	-3377
▁이새끼가	-3378
▁부르셨습니까	-3379
▁낙	-3380
▁냈	-3381
▁씹	-3382
▁쫓	-3383
▁침	-3384
▁폐	-3385
가야	-3386
꼬박	-3387
년아	-3388
로나	-3389
르네	-3390
마디	-3391
만한	-3392
미씨	-3393
받은	-3394
선물	-3395
십쇼	-3396
아이	-3397
았나	-3398
애가	-3399
연씨	-3400
오지	-3401
을때	-3402
죄송	-3403
줄수	-3404
치지	-3405
학생	-3406
▁경고	-3407
▁골프	-3408
▁공개	-3409
▁과장	-3410
▁김사	-3411
▁누굴	-3412
▁눈깔	-3413
▁눈을	-3414
▁됐다	-3415
▁되어	-3416
▁된다	-3417
▁들리	-3418
▁말하	-3419
▁뭐요	-3420
▁벌레	-3421
▁보냈	-3422
▁보다	-3423
▁봐줘	-3424
▁성격	-3425
▁수행	-3426
▁써서	-3427
▁아드	-3428
▁않는	-3429
▁애인	-3430
▁어릴	-3431
▁어찌	-3432
▁예의	-3433
▁예전	-3434
▁와라	-3435
▁외국	-3436
▁위치	-3437
▁위해	-3438
▁유전	-3439
▁인턴	-3440
▁자격	-3441
▁잘난	-3442
▁저러	-3443
▁주지	-3444
▁준다	-3445
▁집이	-3446
▁출장	-3447
▁태어	-3448
▁털어	-3449
▁특별	-3450
▁포기	-3451
▁한데	-3452
▁허허	-3453
것이지	-3454
고싶어	-3455
났는데	-3456
오세요	-3457
왔는데	-3458
전까지	-3459
줄거야	-3460
줘야해	-3461
한테도	-3462
▁가까이	-3463
▁가봐야	-3464
▁가족이	-3465
▁그러네	-3466
▁다른데	-3467
▁되는지	-3468
▁말인데	-3469
▁머라고	-3470
▁바쁜데	-3471
▁받은거	-3472
▁보내면	-3473
▁사모님	-3474
▁성적이	-3475
▁소리가	-3476
▁시간은	-3477
▁신입이	-3478
▁아파서	-3479
▁안했어	-3480
▁없는거	-3481
▁오라고	-3482
▁이제는	-3483
▁있으니	-3484
▁자식아	-3485
▁좋아요	-3486
▁줘야지	-3487
▁지나가	-3488
▁진작에	-3489
▁최대리	-3490
▁코로나	-3491
▁하면서	-3492
▁화나게	-3493
겠습니까	-3494
했는데요	-3495
▁거지새끼	-3496
▁건드리지	-3497
▁그러고도	-3498
▁그러시죠	-3499
▁기다리고	-3500
▁꼬박꼬박	-3501
▁때리지마	-3502
▁못생긴게	-3503
▁뭐라고요	-3504
▁미안하다	-3505
▁부장님이	-3506
▁비밀번호	-3507
▁사정이고	-3508
▁오랜만에	-3509
▁이러니까	-3510
▁인터넷에	-3511
▁조심해라	-3512
▁주십시오	-3513
▁필요없어	-3514
▁그러십니까	-3515
▁곱	-3516
▁굳	-3517
▁냅	-3518
▁빈	-3519
▁색	-3520
▁슬	-3521
▁쌍	-3522
▁옥	-3523
▁워	-3524
▁쫄	-3525
▁흥	-3526
거라	-3527
기나	-3528
기네	-3529
기에	-3530
두고	-3531
렸다	-3532
부턴	-3533
수증	-3534
심해	-3535
았다	-3536
었나	-3537
었네	-3538
오고	-3539
오빠	-3540
을까	-3541
쳤어	-3542
치네	-3543
▁건물	-3544
▁것만	-3545
▁것은	-3546
▁것이	-3547
▁관계	-3548
▁기획	-3549
▁끝날	-3550
▁넘기	-3551
▁동의	-3552
▁돼요	-3553
▁뒷담	-3554
▁드렸	-3555
▁땡땡	-3556
▁만약	-3557
▁말든	-3558
▁말자	-3559
▁무리	-3560
▁발로	-3561
▁배신	-3562
▁살게	-3563
▁살지	-3564
▁새꺄	-3565
▁서울	-3566
▁손을	-3567
▁심해	-3568
▁씨가	-3569
▁아껴	-3570
▁안됐	-3571
▁안쓰	-3572
▁알죠	-3573
▁야이	-3574
▁여유	-3575
▁예쁜	-3576
▁오후	-3577
▁유포	-3578
▁은행	-3579
▁의원	-3580
▁이만	-3581
▁있으	-3582
▁자살	-3583
▁저를	-3584
▁적이	-3585
▁졸업	-3586
▁주소	-3587
▁죽게	-3588
▁하던	-3589
▁하실	-3590
▁할말	-3591
▁확실	-3592
같으면	-3593
리카노	-3594
우니까	-3595
하네요	-3596
하도록	-3597
하시죠	-3598
▁강대리	-3599
▁결혼식	-3600
▁나오는	-3601
▁너네가	-3602
▁너보다	-3603
▁다니면	-3604
▁두고봐	-3605
▁들었어	-3606
▁만원이	-3607
▁말귀를	-3608
▁머리는	-3609
▁보이냐	-3610
▁뿐이야	-3611
▁손님이	-3612
▁시까지	-3613
▁아시죠	-3614
▁안된다	-3615
▁않겠어	-3616
▁약속을	-3617
▁얌전히	-3618
▁어쩌피	-3619
▁이거는	-3620
▁있겠어	-3621
▁있는지	-3622
▁자리에	-3623
▁직원들	-3624
▁찐따야	-3625
▁하시고	-3626
▁한마디	-3627
▁해보자	-3628
메리카노	-3629
하십니다	-3630
▁그따위로	-3631
▁그만하자	-3632
▁그만해라	-3633
▁기분나빠	-3634
▁되는거지	-3635
▁말씀하신	-3636
▁부모님도	-3637
▁빨리빨리	-3638
▁심하잖아	-3639
▁아줌마가	-3640
▁어디있어	-3641
▁이번에는	-3642
▁있는거야	-3643
▁잘못이야	-3644
▁장애인이	-3645
▁점심시간	-3646
▁짜증나네	-3647
▁가겠습니다	-3648
▁그딴식으로	-3649
▁무슨말씀이	-3650
▁선생님한테	-3651
▁오겠습니다	-3652
▁죽여버리고	-3653
▁하지말라고	-3654
▁돕	-3655
▁뚫	-3656
▁셔	-3657
▁얻	-3658
▁옛	-3659
▁층	-3660
▁퍽	-3661
▁휠	-3662
거고	-3663
게나	-3664
금이	-3665
나고	-3666
나오	-3667
내놔	-3668
병신	-3669
분이	-3670
사진	-3671
시에	-3672
았지	-3673
야죠	-3674
었냐	-3675
우야	-3676
으려	-3677
이터	-3678
일로	-3679
있나	-3680
졌네	-3681
졌다	-3682
주에	-3683
줘봐	-3684
지지	-3685
체어	-3686
▁각서	-3687
▁갖다	-3688
▁거라	-3689
▁걸레	-3690
▁구역	-3691
▁굳이	-3692
▁그말	-3693
▁꼴에	-3694
▁나갔	-3695
▁나씨	-3696
▁내로	-3697
▁녀석	-3698
▁녹음	-3699
▁니꺼	-3700
▁담아	-3701
▁등급	-3702
▁때문	-3703
▁똑똑	-3704
▁레벨	-3705
▁리뷰	-3706
▁마시	-3707
▁맞죠	-3708
▁미팅	-3709
▁믿을	-3710
▁받을	-3711
▁보낸	-3712
▁부럽	-3713
▁불가	-3714
▁사준	-3715
▁샀어	-3716
▁상태	-3717
▁안할	-3718
▁애는	-3719
▁애를	-3720
▁어허	-3721
▁얼만	-3722
▁연습	-3723
▁옛날	-3724
▁옷을	-3725
▁우스	-3726
▁의미	-3727
▁이놈	-3728
▁이를	-3729
▁이빨	-3730
▁지원	-3731
▁참고	-3732
▁충분	-3733
▁취급	-3734
▁크게	-3735
▁통장	-3736
▁팩트	-3737
▁했나	-3738
▁했던	-3739
거예요	-3740
겠지만	-3741
긴한데	-3742
면서요	-3743
버리면	-3744
십시요	-3745
아니라	-3746
이라며	-3747
줬는데	-3748
진다고	-3749
하거든	-3750
한테는	-3751
합니까	-3752
했으면	-3753
▁거니까	-3754
▁공부도	-3755
▁꼴보기	-3756
▁나때는	-3757
▁나보다	-3758
▁나이가	-3759
▁남아서	-3760
▁남편이	-3761
▁돈이나	-3762
▁뒤에서	-3763
▁들어왔	-3764
▁마음이	-3765
▁만원은	-3766
▁많은데	-3767
▁말로만	-3768
▁몸으로	-3769
▁배고프	-3770
▁버리고	-3771
▁병신아	-3772
▁분위기	-3773
▁생겼어	-3774
▁소중한	-3775
▁안보내	-3776
▁어쩔수	-3777
▁엄마도	-3778
▁여기는	-3779
▁열받게	-3780
▁이제야	-3781
▁입금해	-3782
▁저희도	-3783
▁정도는	-3784
▁좋다고	-3785
▁준다고	-3786
▁지갑에	-3787
▁지갑을	-3788
▁태어나	-3789
▁필요해	-3790
▁하나씩	-3791
▁휠체어	-3792
라는거야	-3793
▁그러시면	-3794
▁너무한거	-3795
▁누구시죠	-3796
▁되잖아요	-3797
▁말씀드렸	-3798
▁생일선물	-3799
▁시끄럽게	-3800
▁아니예요	-3801
▁아니지만	-3802
▁알았어요	-3803
▁앞으로도	-3804
▁없으면서	-3805
▁이제와서	-3806
▁일처리를	-3807
▁찾아가서	-3808
▁팀장님이	-3809
▁헤어지자	-3810
▁뭐하는거야	-3811
▁아메리카노	-3812
▁모르겠습니다	-3813
▁신고하겠습니다	-3814
▁묶	-3815
▁쑤	-3816
▁칭	-3817
▁클	-3818
▁험	-3819
▁혀	-3820
기야	-3821
릴래	-3822
물어	-3823
뭐야	-3824
바닥	-3825
비서	-3826
소문	-3827
수를	-3828
스로	-3829
아요	-3830
아지	-3831
았냐	-3832
업체	-3833
었고	-3834
장애	-3835
쟁이	-3836
제로	-3837
직원	-3838
친다	-3839
파서	-3840
하라	-3841
할수	-3842
현씨	-3843
회사	-3844
희롱	-3845
▁가봐	-3846
▁같지	-3847
▁고쳐	-3848
▁곱게	-3849
▁교통	-3850
▁국밥	-3851
▁굴어	-3852
▁나야	-3853
▁남겨	-3854
▁남은	-3855
▁너지	-3856
▁니들	-3857
▁다해	-3858
▁달려	-3859
▁둘다	-3860
▁드린	-3861
▁따뜻	-3862
▁마감	-3863
▁마실	-3864
▁명령	-3865
▁명품	-3866
▁몇개	-3867
▁뭐든	-3868
▁미스	-3869
▁버려	-3870
▁변명	-3871
▁본인	-3872
▁부끄	-3873
▁부자	-3874
▁삭제	-3875
▁살기	-3876
▁삼백	-3877
▁삼촌	-3878
▁세탁	-3879
▁손이	-3880
▁손해	-3881
▁수학	-3882
▁쉬는	-3883
▁싫은	-3884
▁쓰는	-3885
▁쓸게	-3886
▁옥상	-3887
▁일어	-3888
▁입은	-3889
▁있니	-3890
▁잖아	-3891
▁저거	-3892
▁저랑	-3893
▁전혀	-3894
▁정상	-3895
▁제품	-3896
▁줘라	-3897
▁찌르	-3898
▁참여	-3899
▁친한	-3900
▁칭찬	-3901
▁큰일	-3902
▁키워	-3903
▁타고	-3904
▁한잔	-3905
▁한참	-3906
▁할까	-3907
▁할수	-3908
▁함께	-3909
▁했을	-3910
▁화가	-3911
겠구만	-3912
고싶냐	-3913
는거냐	-3914
때마다	-3915
릅니다	-3916
사이에	-3917
스러운	-3918
시나요	-3919
시네요	-3920
에서는	-3921
있는거	-3922
있으면	-3923
장에서	-3924
하던데	-3925
해놓고	-3926
▁가는데	-3927
▁가라고	-3928
▁가방에	-3929
▁거래처	-3930
▁것들은	-3931
▁고맙다	-3932
▁그러다	-3933
▁그만좀	-3934
▁급해서	-3935
▁내동생	-3936
▁너말고	-3937
▁다리가	-3938
▁다에요	-3939
▁도움이	-3940
▁동생은	-3941
▁뒤지고	-3942
▁떨어져	-3943
▁많잖아	-3944
▁말하기	-3945
▁말해봐	-3946
▁맛있게	-3947
▁맞으면	-3948
▁머리도	-3949
▁못해요	-3950
▁문제집	-3951
▁분명히	-3952
▁성희롱	-3953
▁소문내	-3954
▁순순히	-3955
▁아그래	-3956
▁알려줘	-3957
▁얘기가	-3958
▁어딘지	-3959
▁얼굴에	-3960
▁없었어	-3961
▁여기로	-3962
▁영수증	-3963
▁이상해	-3964
▁이자식	-3965
▁인스타	-3966
▁자네도	-3967
▁잘됐다	-3968
▁전까지	-3969
▁정도면	-3970
▁좋잖아	-3971
▁주변에	-3972
▁죽는거	-3973
▁중요해	-3974
▁팔아서	-3975
▁하나요	-3976
▁해줄까	-3977
▁헤어질	-3978
▁회장님	-3979
는거잖아	-3980
▁고등학교	-3981
▁그만해줘	-3982
▁다음주에	-3983
▁말하지마	-3984
▁말할거야	-3985
▁미쳤구나	-3986
▁부탁할게	-3987
▁생각해봐	-3988
▁않습니다	-3989
▁없잖아요	-3990
▁오냐오냐	-3991
▁우리엄마	-3992
▁이번주에	-3993
▁정말이야	-3994
▁지난번에	-3995
▁직원들이	-3996
▁하시네요	-3997
▁가져오라고	-3998
▁따라하지마	-3999
▁말대답이야	-4000
▁모르겠지만	-4001
▁정신차리지	-4002
▁왜그러는거야	-4003
▁해오겠습니다	-4004
▁굶	-4005
▁깡	-4006
▁뭣	-4007
▁벼	-4008
▁블	-4009
▁샤	-4010
▁섞	-4011
▁찬	-4012
▁첫	-4013
▁칠	-4014
▁탕	-4015
놨어	-4016
따라	-4017
릴라	-4018
부장	-4019
사고	-4020
센터	-4021
수님	-4022
없지	-4023
영씨	-4024
있다	-4025
자리	-4026
자식	-4027
장을	-4028
조건	-4029
주야	-4030
집에	-4031
하려	-4032
히고	-4033
▁가요	-4034
▁감당	-4035
▁걔네	-4036
▁검사	-4037
▁게이	-4038
▁골라	-4039
▁기절	-4040
▁까불	-4041
▁느끼	-4042
▁드려	-4043
▁딸을	-4044
▁말같	-4045
▁먹여	-4046
▁못들	-4047
▁못먹	-4048
▁문열	-4049
▁민폐	-4050
▁바뀌	-4051
▁바닥	-4052
▁보네	-4053
▁보태	-4054
▁봐요	-4055
▁부담	-4056
▁비상	-4057
▁비슷	-4058
▁빼고	-4059
▁상품	-4060
▁서운	-4061
▁수고	-4062
▁쉬고	-4063
▁신장	-4064
▁아씨	-4065
▁않게	-4066
▁어깨	-4067
▁어째	-4068
▁억지	-4069
▁유치	-4070
▁이병	-4071
▁이용	-4072
▁자르	-4073
▁잠을	-4074
▁저만	-4075
▁존재	-4076
▁좋고	-4077
▁지각	-4078
▁차를	-4079
▁차비	-4080
▁텐데	-4081
▁통화	-4082
▁파악	-4083
▁퍼뜨	-4084
▁한명	-4085
▁한숨	-4086
▁행복	-4087
▁현실	-4088
거같아	-4089
나보지	-4090
다니냐	-4091
드리고	-4092
렸잖아	-4093
먹으면	-4094
버리기	-4095
셨으면	-4096
스럽게	-4097
아니고	-4098
올게요	-4099
으시죠	-4100
을텐데	-4101
인거야	-4102
있어서	-4103
졌다고	-4104
주는데	-4105
줬으면	-4106
하겠다	-4107
하는건	-4108
▁갔다와	-4109
▁걱정마	-4110
▁고릴라	-4111
▁교육을	-4112
▁그런적	-4113
▁그렇고	-4114
▁그렇죠	-4115
▁그쪽이	-4116
▁끝났어	-4117
▁남자가	-4118
▁내려놓	-4119
▁내버려	-4120
▁내일은	-4121
▁냄새도	-4122
▁너무해	-4123
▁누군데	-4124
▁다니냐	-4125
▁다리를	-4126
▁다했어	-4127
▁당하고	-4128
▁들어서	-4129
▁말해야	-4130
▁먹으러	-4131
▁못해서	-4132
▁무엇을	-4133
▁무조건	-4134
▁물건을	-4135
▁뭐하나	-4136
▁받아가	-4137
▁방법은	-4138
▁병신이	-4139
▁사와라	-4140
▁실수로	-4141
▁심하게	-4142
▁싶어요	-4143
▁아이씨	-4144
▁어디에	-4145
▁어쩐지	-4146
▁여러분	-4147
▁여자가	-4148
▁오해가	-4149
▁일하고	-4150
▁자리로	-4151
▁잘못을	-4152
▁죽겠네	-4153
▁죽인다	-4154
▁줬잖아	-4155
▁집으로	-4156
▁하던가	-4157
▁회사는	-4158
것같은데	-4159
드릴까요	-4160
▁개인적인	-4161
▁그러니깐	-4162
▁그런거야	-4163
▁그런거지	-4164
▁그럴리가	-4165
▁그렇구나	-4166
▁그만하고	-4167
▁기분나쁘	-4168
▁너무하다	-4169
▁다음부턴	-4170
▁목숨만은	-4171
▁못하겠어	-4172
▁부러뜨려	-4173
▁빌려줘라	-4174
▁사장님이	-4175
▁상사한테	-4176
▁우리한테	-4177
▁이거밖에	-4178
▁이따구로	-4179
▁이상하게	-4180
▁일이시죠	-4181
▁일주일만	-4182
▁잔말말고	-4183
▁죽여줄게	-4184
▁지금부터	-4185
▁필요한데	-4186
▁하셨어요	-4187
▁해달라고	-4188
▁협박죄로	-4189
▁환불해줘	-4190
▁곤란합니다	-4191
▁그러지말고	-4192
▁남자친구가	-4193
▁미안하다고	-4194
▁안된다니까	-4195
▁않겠습니다	-4196
▁잘못했다고	-4197
▁편의점에서	-4198
▁헤어지자고	-4199
▁무슨일이세요	-4200
▁왜그러십니까	-4201
▁깍	-4202
▁꽉	-4203
▁꿈	-4204
▁끄	-4205
▁둔	-4206
▁듯	-4207
▁봉	-4208
▁쌤	-4209
▁압	-4210
▁째	-4211
▁콩	-4212
▁흠	-4213
가게	-4214
내는	-4215
내서	-4216
냈어	-4217
답게	-4218
되어	-4219
라이	-4220
래도	-4221
르게	-4222
리냐	-4223
본데	-4224
비실	-4225
사와	-4226
서야	-4227
세상	-4228
셔도	-4229
수는	-4230
스럽	-4231
시네	-4232
왔냐	-4233
우가	-4234
우고	-4235
일도	-4236
있고	-4237
있네	-4238
장도	-4239
전이	-4240
주시	-4241
질이	-4242
천원	-4243
촬영	-4244
치기	-4245
해와	-4246
했나	-4247
▁갈아	-4248
▁감옥	-4249
▁같냐	-4250
▁개웃	-4251
▁고장	-4252
▁그야	-4253
▁기한	-4254
▁끊어	-4255
▁놀려	-4256
▁느껴	-4257
▁당당	-4258
▁대표	-4259
▁됐네	-4260
▁들려	-4261
▁따위	-4262
▁딸도	-4263
▁만날	-4264
▁맛이	-4265
▁먹은	-4266
▁면상	-4267
▁몇년	-4268
▁못사	-4269
▁못쓰	-4270
▁문자	-4271
▁민지	-4272
▁배려	-4273
▁번도	-4274
▁부딪	-4275
▁빌릴	-4276
▁살인	-4277
▁생겨	-4278
▁식당	-4279
▁신체	-4280
▁싶나	-4281
▁안끝	-4282
▁애도	-4283
▁양보	-4284
▁없게	-4285
▁영업	-4286
▁위에	-4287
▁유출	-4288
▁일에	-4289
▁잘났	-4290
▁잡종	-4291
▁장소	-4292
▁정색	-4293
▁정확	-4294
▁주민	-4295
▁쥐도	-4296
▁지방	-4297
▁차별	-4298
▁처신	-4299
▁칼을	-4300
▁하다	-4301
▁하려	-4302
▁하신	-4303
▁한가	-4304
▁해준	-4305
▁환장	-4306
▁후배	-4307
▁흥분	-4308
거잖아	-4309
다는데	-4310
다니고	-4311
셨는데	-4312
싫으면	-4313
없어서	-4314
였으면	-4315
주려고	-4316
하느라	-4317
하려면	-4318
하지도	-4319
해줄게	-4320
▁거라고	-4321
▁것들이	-4322
▁계세요	-4323
▁끝내자	-4324
▁끝이야	-4325
▁다니게	-4326
▁답답해	-4327
▁더러운	-4328
▁도와줄	-4329
▁뒤지게	-4330
▁들어간	-4331
▁때리지	-4332
▁뛰어내	-4333
▁맞는데	-4334
▁모르지	-4335
▁못하나	-4336
▁뭐에요	-4337
▁밖에서	-4338
▁받으면	-4339
▁보이는	-4340
▁부당한	-4341
▁빌리자	-4342
▁사랑해	-4343
▁사적인	-4344
▁살리고	-4345
▁샀는데	-4346
▁상관이	-4347
▁생각은	-4348
▁생각할	-4349
▁십만원	-4350
▁안녕히	-4351
▁안으로	-4352
▁않았어	-4353
▁않을까	-4354
▁알겠다	-4355
▁얼굴을	-4356
▁없어도	-4357
▁예쁘게	-4358
▁우리딸	-4359
▁이쁘게	-4360
▁있거든	-4361
▁있을거	-4362
▁죽어도	-4363
▁짓이야	-4364
▁차비가	-4365
▁쳐다봐	-4366
▁총으로	-4367
▁충분히	-4368
▁테니까	-4369
▁피해를	-4370
▁하도록	-4371
▁하신거	-4372
▁해주면	-4373
▁혼자서	-4374
드릴께요	-4375
이라니까	-4376
▁개인정보	-4377
▁그래야지	-4378
▁그랬잖아	-4379
▁그러시는	-4380
▁그렇다면	-4381
▁그정도는	-4382
▁모르겠어	-4383
▁못하는게	-4384
▁미친놈아	-4385
▁사람들은	-4386
▁살아야지	-4387
▁세상에서	-4388
▁소리세요	-4389
▁신고해봐	-4390
▁안좋아서	-4391
▁알아들어	-4392
▁어딨어요	-4393
▁엄마아빠	-4394
▁없어서요	-4395
▁여기까지	-4396
▁왜그러냐	-4397
▁이것밖에	-4398
▁이야기를	-4399
▁있잖아요	-4400
▁장난이야	-4401
▁쪼잔하게	-4402
▁친구잖아	-4403
▁갚겠습니다	-4404
▁생각합니다	-4405
▁오랜만이다	-4406
▁조금이라도	-4407
▁좋아보인다	-4408
▁죄송하다는	-4409
▁안녕하십니까	-4410
▁이러지마세요	-4411
▁죽어버릴거야	-4412
▁긁	-4413
▁났	-4414
▁뇌	-4415
▁떨	-4416
▁빚	-4417
▁섭	-4418
▁쏘	-4419
▁짖	-4420
▁쫌	-4421
▁컸	-4422
▁쿵	-4423
▁혜	-4424
▁흉	-4425
▁흘	-4426
거려	-4427
규직	-4428
껀데	-4429
나는	-4430
내가	-4431
다닐	-4432
다리	-4433
대요	-4434
돌려	-4435
되나	-4436
되서	-4437
말에	-4438
말자	-4439
모가	-4440
모양	-4441
무가	-4442
물이	-4443
방에	-4444
보네	-4445
부가	-4446
생겼	-4447
석에	-4448
시기	-4449
시락	-4450
싫어	-4451
싶어	-4452
쓸게	-4453
아노	-4454
어가	-4455
없게	-4456
이어	-4457
정상	-4458
좋게	-4459
주제	-4460
죽고	-4461
지나	-4462
차림	-4463
처리	-4464
철아	-4465
치면	-4466
카드	-4467
하러	-4468
한잔	-4469
호야	-4470
훼손	-4471
▁같다	-4472
▁계정	-4473
▁고작	-4474
▁구경	-4475
▁구네	-4476
▁근처	-4477
▁꼬마	-4478
▁꿀꿀	-4479
▁나라	-4480
▁나름	-4481
▁나좀	-4482
▁나타	-4483
▁남아	-4484
▁냅둬	-4485
▁너야	-4486
▁년이	-4487
▁놀고	-4488
▁되고	-4489
▁들을	-4490
▁등록	-4491
▁따님	-4492
▁뜨거	-4493
▁말에	-4494
▁말투	-4495
▁망가	-4496
▁맞을	-4497
▁머래	-4498
▁먹게	-4499
▁몸매	-4500
▁몸에	-4501
▁못한	-4502
▁물론	-4503
▁뭐고	-4504
▁미루	-4505
▁반응	-4506
▁부를	-4507
▁부장	-4508
▁뿌려	-4509
▁살이	-4510
▁속이	-4511
▁수는	-4512
▁신랑	-4513
▁신어	-4514
▁아예	-4515
▁안전	-4516
▁애랑	-4517
▁양심	-4518
▁어우	-4519
▁언젠	-4520
▁오른	-4521
▁올릴	-4522
▁옷도	-4523
▁요구	-4524
▁요번	-4525
▁우울	-4526
▁응응	-4527
▁인질	-4528
▁일러	-4529
▁입만	-4530
▁있게	-4531
▁작작	-4532
▁잡고	-4533
▁점장	-4534
▁좋냐	-4535
▁주임	-4536
▁죽인	-4537
▁줄께	-4538
▁지겹	-4539
▁지시	-4540
▁진지	-4541
▁집어	-4542
▁창고	-4543
▁취업	-4544
▁태도	-4545
▁평가	-4546
▁하라	-4547
▁하아	-4548
▁하죠	-4549
▁학년	-4550
▁형씨	-4551
▁힘드	-4552
끝나고	-4553
버리는	-4554
소리가	-4555
시는데	-4556
왔어요	-4557
하다가	-4558
하다면	-4559
하셔서	-4560
할까요	-4561
▁가져간	-4562
▁갈게요	-4563
▁궁금해	-4564
▁그거는	-4565
▁그거랑	-4566
▁기어오	-4567
▁김과장	-4568
▁김선생	-4569
▁끝내고	-4570
▁나오고	-4571
▁나오지	-4572
▁내려가	-4573
▁누구랑	-4574
▁눈치도	-4575
▁다녀와	-4576
▁대화로	-4577
▁데려다	-4578
▁들어갈	-4579
▁따위로	-4580
▁때리고	-4581
▁만나면	-4582
▁만나서	-4583
▁만드네	-4584
▁만만해	-4585
▁말던가	-4586
▁말하고	-4587
▁말할때	-4588
▁말해도	-4589
▁맞는다	-4590
▁모르나	-4591
▁모른척	-4592
▁목숨이	-4593
▁무사할	-4594
▁번째야	-4595
▁사과는	-4596
▁사과를	-4597
▁사는데	-4598
▁사랑이	-4599
▁성격이	-4600
▁스스로	-4601
▁시간도	-4602
▁시키면	-4603
▁쓴다고	-4604
▁아드님	-4605
▁아파요	-4606
▁안그럼	-4607
▁어딨냐	-4608
▁어쨌든	-4609
▁오빠랑	-4610
▁오지마	-4611
▁용돈이	-4612
▁우스워	-4613
▁우습냐	-4614
▁웃기고	-4615
▁의원님	-4616
▁이거지	-4617
▁이대로	-4618
▁이리로	-4619
▁일처리	-4620
▁잃어버	-4621
▁잘됐네	-4622
▁잘리고	-4623
▁장난감	-4624
▁장난도	-4625
▁짤리고	-4626
▁친구는	-4627
▁한다는	-4628
▁해고야	-4629
▁해놓고	-4630
▁헤어졌	-4631
▁환불은	-4632
았습니다	-4633
하시는거	-4634
▁개새끼야	-4635
▁괴롭히는	-4636
▁김대리는	-4637
▁깔끔하게	-4638
▁누구한테	-4639
▁말하는거	-4640
▁먹으라고	-4641
▁못하면서	-4642
▁뭔소리야	-4643
▁부족해서	-4644
▁사주셨어	-4645
▁살려줄게	-4646
▁생겼는데	-4647
▁아무래도	-4648
▁아침부터	-4649
▁어떡하냐	-4650
▁어이없네	-4651
▁없는거야	-4652
▁이름으로	-4653
▁이제부터	-4654
▁일로와바	-4655
▁있는데요	-4656
▁있습니까	-4657
▁있으면서	-4658
▁힘들어서	-4659
▁그렇습니다	-4660
▁다음부터는	-4661
▁모르겠는데	-4662
▁모르겠어요	-4663
▁무슨일이야	-4664
▁부모님한테	-4665
▁심하시네요	-4666
▁하셨잖아요	-4667
▁무슨일이시죠	-4668
▁신고하기전에	-4669
▁잘하겠습니다	-4670
▁수정하겠습니다	-4671
▁견	-4672
▁굼	-4673
▁깝	-4674
▁눌	-4675
▁닫	-4676
▁댁	-4677
▁땀	-4678
▁떡	-4679
▁루	-4680
▁봅	-4681
▁엿	-4682
▁융	-4683
▁쫙	-4684
▁콜	-4685
▁팬	-4686
▁풉	-4687
▁핫	-4688
▁헤	-4689
▁훨	-4690
▁휘	-4691
구멍	-4692
군요	-4693
기다	-4694
낸다	-4695
놈이	-4696
는것	-4697
력도	-4698
릿세	-4699
말을	-4700
민씨	-4701
벤트	-4702
보내	-4703
부탁	-4704
사에	-4705
상이	-4706
시게	-4707
쓰면	-4708
업무	-4709
왔지	-4710
운데	-4711
이죠	-4712
일에	-4713
주씨	-4714
짓을	-4715
하산	-4716
한건	-4717
했고	-4718
했던	-4719
혀서	-4720
혜야	-4721
호사	-4722
▁가려	-4723
▁감정	-4724
▁개그	-4725
▁개만	-4726
▁거죠	-4727
▁그돈	-4728
▁깜빡	-4729
▁깡패	-4730
▁꾸미	-4731
▁끝난	-4732
▁나간	-4733
▁날짜	-4734
▁났어	-4735
▁내눈	-4736
▁내는	-4737
▁내면	-4738
▁단정	-4739
▁돕고	-4740
▁두개	-4741
▁뒤로	-4742
▁듣지	-4743
▁마라	-4744
▁마약	-4745
▁만난	-4746
▁만족	-4747
▁모습	-4748
▁모욕	-4749
▁못믿	-4750
▁못받	-4751
▁못봤	-4752
▁민수	-4753
▁밀어	-4754
▁밑에	-4755
▁박스	-4756
▁반성	-4757
▁버리	-4758
▁번에	-4759
▁벗어	-4760
▁별거	-4761
▁비번	-4762
▁빠듯	-4763
▁사면	-4764
▁사서	-4765
▁살면	-4766
▁살살	-4767
▁살자	-4768
▁상담	-4769
▁새벽	-4770
▁설치	-4771
▁세금	-4772
▁소름	-4773
▁싸게	-4774
▁아래	-4775
▁아마	-4776
▁안사	-4777
▁안죽	-4778
▁안타	-4779
▁약간	-4780
▁어떨	-4781
▁어처	-4782
▁업체	-4783
▁없던	-4784
▁여깄	-4785
▁연애	-4786
▁예정	-4787
▁오타	-4788
▁웃어	-4789
▁원에	-4790
▁유명	-4791
▁육아	-4792
▁이쪽	-4793
▁일병	-4794
▁재산	-4795
▁쟤는	-4796
▁적게	-4797
▁조져	-4798
▁중에	-4799
▁찍은	-4800
▁차에	-4801
▁촬영	-4802
▁크크	-4803
▁타와	-4804
▁퇴사	-4805
▁팀원	-4806
▁하란	-4807
▁한두	-4808
▁해달	-4809
▁해킹	-4810
▁허구	-4811
갔잖아	-4812
같은데	-4813
거리는	-4814
단말야	-4815
드리는	-4816
렸는데	-4817
렸다고	-4818
렸어요	-4819
보다는	-4820
으니깐	-4821
으로도	-4822
을까요	-4823
질거야	-4824
집에서	-4825
테니깐	-4826
하는지	-4827
하시지	-4828
한건데	-4829
한다는	-4830
▁가자고	-4831
▁가져올	-4832
▁갑시다	-4833
▁거기에	-4834
▁경찰부	-4835
▁교수님	-4836
▁구해와	-4837
▁그걸로	-4838
▁그때는	-4839
▁그럴게	-4840
▁그만큼	-4841
▁깨끗이	-4842
▁꺼져라	-4843
▁나가고	-4844
▁낙하산	-4845
▁내라고	-4846
▁너밖에	-4847
▁다니고	-4848
▁다른거	-4849
▁다음달	-4850
▁달라는	-4851
▁덕분에	-4852
▁도와줘	-4853
▁돌려주	-4854
▁되겠어	-4855
▁되어서	-4856
▁들어와	-4857
▁들으면	-4858
▁만원에	-4859
▁말한다	-4860
▁머리를	-4861
▁며칠만	-4862
▁모르냐	-4863
▁못하네	-4864
▁물건이	-4865
▁미친것	-4866
▁범죄야	-4867
▁부모가	-4868
▁분질러	-4869
▁불가능	-4870
▁사이에	-4871
▁사주신	-4872
▁사줄게	-4873
▁살아서	-4874
▁생기면	-4875
▁선물로	-4876
▁신경써	-4877
▁아가리	-4878
▁안되서	-4879
▁않았나	-4880
▁알면서	-4881
▁알아라	-4882
▁압니다	-4883
▁어디있	-4884
▁어때서	-4885
▁업무를	-4886
▁역겨워	-4887
▁연락처	-4888
▁오해야	-4889
▁웃기는	-4890
▁위험해	-4891
▁유치원	-4892
▁이런걸	-4893
▁이름이	-4894
▁이쁘네	-4895
▁인생이	-4896
▁있는건	-4897
▁있던데	-4898
▁자릿세	-4899
▁자식을	-4900
▁잘생각	-4901
▁잘쓸게	-4902
▁재수가	-4903
▁적어도	-4904
▁정신병	-4905
▁죽었다	-4906
▁죽이지	-4907
▁지수씨	-4908
▁찐따가	-4909
▁찾아서	-4910
▁찾아오	-4911
▁철수야	-4912
▁태도가	-4913
▁특별히	-4914
▁풀어줘	-4915
▁하기로	-4916
▁한대씩	-4917
▁한번에	-4918
▁해줘요	-4919
▁형한테	-4920
▁확인해	-4921
겠다는데	-4922
단말이야	-4923
더라구요	-4924
아니에요	-4925
지않으면	-4926
하잖아요	-4927
▁가족들도	-4928
▁갚는다고	-4929
▁계좌번호	-4930
▁내버려둬	-4931
▁다니는거	-4932
▁들어와서	-4933
▁만들어줘	-4934
▁못생겨서	-4935
▁못생겼다	-4936
▁못하니까	-4937
▁무사하지	-4938
▁뭐하시는	-4939
▁미안하면	-4940
▁빌려달라	-4941
▁신고한다	-4942
▁신입사원	-4943
▁싶습니다	-4944
▁아까부터	-4945
▁아저씨가	-4946
▁안그래도	-4947
▁앞으로는	-4948
▁어른한테	-4949
▁어쨌다고	-4950
▁전화번호	-4951
▁지나가는	-4952
▁진짜에요	-4953
▁친구한테	-4954
▁퇴근하고	-4955
▁하나하나	-4956
▁하는건데	-4957
▁하는데요	-4958
▁할테니까	-4959
▁했어야지	-4960
버릴까보다	-4961
▁말하는거야	-4962
▁여자친구랑	-4963
▁정말이에요	-4964
▁제정신이야	-4965
▁죄송하다고	-4966
▁하라는대로	-4967
▁하지마세요	-4968
▁너무하시네요	-4969
▁해드리겠습니다	-4970
▁꺄	-4971
▁껴	-4972
▁몽	-4973
▁뵈	-4974
▁뺐	-4975
▁샌	-4976
▁짝	-4977
▁트	-4978
▁홀	-4979
간에	-4980
거냐	-4981
관리	-4982
구려	-4983
꺼내	-4984
녀를	-4985
니저	-4986
데가	-4987
라며	-4988
랬어	-4989
러가	-4990
마자	-4991
만간	-4992
말로	-4993
말이	-4994
모르	-4995
몰라	-4996
바이	-4997
사가	-4998
사님	-4999
사정	-5000
상태	-5001
아파	-5002
알지	-5003
우는	-5004
일세	-5005
있을	-5006
잖니	-5007
지네	-5008
친거	-5009
통에	-5010
튜브	-5011
팀장	-5012
하래	-5013
한가	-5014
한텐	-5015
▁가격	-5016
▁간식	-5017
▁같고	-5018
▁같애	-5019
▁개판	-5020
▁거고	-5021
▁거다	-5022
▁거리	-5023
▁것을	-5024
▁고발	-5025
▁귀엽	-5026
▁그저	-5027
▁기스	-5028
▁꼴도	-5029
▁납치	-5030
▁내맘	-5031
▁내야	-5032
▁놈아	-5033
▁느려	-5034
▁늦은	-5035
▁다가	-5036
▁닦아	-5037
▁단가	-5038
▁대기	-5039
▁대드	-5040
▁대한	-5041
▁동물	-5042
▁되냐	-5043
▁되니	-5044
▁들은	-5045
▁따돌	-5046
▁뜨고	-5047
▁마주	-5048
▁마찬	-5049
▁마침	-5050
▁메뉴	-5051
▁몇살	-5052
▁못줘	-5053
▁못참	-5054
▁무식	-5055
▁발라	-5056
▁배로	-5057
▁벌점	-5058
▁보험	-5059
▁부셔	-5060
▁붙여	-5061
▁비워	-5062
▁비키	-5063
▁빵좀	-5064
▁뺏어	-5065
▁사냐	-5066
▁사먹	-5067
▁사소	-5068
▁산다	-5069
▁성과	-5070
▁성의	-5071
▁셔틀	-5072
▁숨겨	-5073
▁스토	-5074
▁신청	-5075
▁실망	-5076
▁안가	-5077
▁안둘	-5078
▁어리	-5079
▁어림	-5080
▁언론	-5081
▁없니	-5082
▁여편	-5083
▁연구	-5084
▁올해	-5085
▁옮겨	-5086
▁외모	-5087
▁융통	-5088
▁이어	-5089
▁인기	-5090
▁인수	-5091
▁자세	-5092
▁정당	-5093
▁정해	-5094
▁중국	-5095
▁지하	-5096
▁집구	-5097
▁차단	-5098
▁초대	-5099
▁코가	-5100
▁팀장	-5101
▁하든	-5102
▁한율	-5103
▁할지	-5104
▁했니	-5105
▁혼나	-5106
▁후에	-5107
같아서	-5108
나보다	-5109
는거니	-5110
대가리	-5111
됩니까	-5112
드리면	-5113
때부터	-5114
라구요	-5115
리는데	-5116
리니까	-5117
발이고	-5118
시간이	-5119
시키고	-5120
신다고	-5121
아닌데	-5122
안하고	-5123
애들이	-5124
어머니	-5125
없으면	-5126
주제에	-5127
지않아	-5128
하겠네	-5129
하나요	-5130
하냐고	-5131
▁가르쳐	-5132
▁가족도	-5133
▁가족을	-5134
▁갈거야	-5135
▁개새끼	-5136
▁그럼요	-5137
▁기억나	-5138
▁김비서	-5139
▁김사장	-5140
▁김인턴	-5141
▁난리야	-5142
▁너에게	-5143
▁눈으로	-5144
▁능력이	-5145
▁늦었어	-5146
▁다녀오	-5147
▁당신은	-5148
▁당장은	-5149
▁대들어	-5150
▁대학은	-5151
▁데려와	-5152
▁데이터	-5153
▁도시락	-5154
▁돈이야	-5155
▁되겠다	-5156
▁뒤지기	-5157
▁따라해	-5158
▁땡땡씨	-5159
▁만나고	-5160
▁만나자	-5161
▁말해라	-5162
▁먹는거	-5163
▁몰랐어	-5164
▁못한다	-5165
▁못해주	-5166
▁물어봐	-5167
▁뭐하자	-5168
▁미쳤네	-5169
▁민수씨	-5170
▁벌어서	-5171
▁보내고	-5172
▁본인이	-5173
▁부끄럽	-5174
▁부럽다	-5175
▁부분이	-5176
▁뿐인데	-5177
▁사실이	-5178
▁생겼냐	-5179
▁소문이	-5180
▁신경쓰	-5181
▁심한거	-5182
▁아까워	-5183
▁안그럴	-5184
▁안빌려	-5185
▁앉아서	-5186
▁않은데	-5187
▁알았지	-5188
▁야근을	-5189
▁얘기는	-5190
▁얘기한	-5191
▁어디다	-5192
▁어쩌나	-5193
▁언니가	-5194
▁얼굴만	-5195
▁없도록	-5196
▁연차를	-5197
▁예전에	-5198
▁오늘이	-5199
▁옷차림	-5200
▁왔는데	-5201
▁왔어요	-5202
▁우리팀	-5203
▁월급을	-5204
▁윗사람	-5205
▁이거야	-5206
▁이래라	-5207
▁이런건	-5208
▁이자가	-5209
▁이해가	-5210
▁일어날	-5211
▁일일이	-5212
▁있나봐	-5213
▁잘어울	-5214
▁잘하고	-5215
▁잘하면	-5216
▁정대리	-5217
▁조만간	-5218
▁좋겠네	-5219
▁주둥이	-5220
▁주라고	-5221
▁죽어야	-5222
▁죽여줘	-5223
▁지수야	-5224
▁지은씨	-5225
▁집안에	-5226
▁찍어서	-5227
▁커피도	-5228
▁피아노	-5229
▁하고는	-5230
▁하나는	-5231
▁할일이	-5232
▁해볼까	-5233
▁해야할	-5234
▁환불이	-5235
▁휴가가	-5236
▁힘든데	-5237
해주시면	-5238
▁가져가면	-5239
▁가져갈게	-5240
▁같으니까	-5241
▁그러다가	-5242
▁그런다고	-5243
▁놓으세요	-5244
▁다니면서	-5245
▁다음달에	-5246
▁더러워서	-5247
▁되는거야	-5248
▁들었어요	-5249
▁마찬가지	-5250
▁맛있는거	-5251
▁무서워서	-5252
▁불쌍해서	-5253
▁뻔뻔하게	-5254
▁서비스가	-5255
▁소개시켜	-5256
▁수행평가	-5257
▁아가씨가	-5258
▁아까워서	-5259
▁아이디어	-5260
▁아주머니	-5261
▁아직까지	-5262
▁안되겠어	-5263
▁않을까요	-5264
▁어떡해요	-5265
▁어쩌려고	-5266
▁오늘부터	-5267
▁우리끼리	-5268
▁웃기지마	-5269
▁이것들이	-5270
▁이기적이	-5271
▁이쁘다고	-5272
▁인사평가	-5273
▁일이세요	-5274
▁잘했다고	-5275
▁장기라도	-5276
▁장난하나	-5277
▁좋겠어요	-5278
▁진심이야	-5279
▁진정하고	-5280
▁필요없고	-5281
▁할머니가	-5282
▁헤어지고	-5283
▁확인해보	-5284
것같습니다	-5285
버릴테니까	-5286
▁고통스럽게	-5287
▁마지막으로	-5288
▁머리카락이	-5289
▁뭐라는거야	-5290
▁부탁드려요	-5291
▁사람들한테	-5292
▁신고할꺼야	-5293
▁잘못했는지	-5294
▁좋은말할때	-5295
▁진정하시고	-5296
▁용서해주세요	-5297
▁귓	-5298
▁극	-5299
▁깐	-5300
▁껌	-5301
▁꼼	-5302
▁꽂	-5303
▁꿇	-5304
▁덩	-5305
▁됬	-5306
▁립	-5307
▁뼈	-5308
▁삐	-5309
▁석	-5310
▁엘	-5311
▁왠	-5312
▁익	-5313
▁짱	-5314
▁콱	-5315
▁펜	-5316
▁흔	-5317
가라	-5318
갈게	-5319
걸요	-5320
겠군	-5321
겨워	-5322
기지	-5323
나와	-5324
남자	-5325
되고	-5326
두면	-5327
러지	-5328
루와	-5329
르신	-5330
리러	-5331
먹네	-5332
불러	-5333
상관	-5334
쇼핑	-5335
시나	-5336
시킬	-5337
신고	-5338
알고	-5339
애들	-5340
여자	-5341
원에	-5342
이게	-5343
인계	-5344
인을	-5345
장에	-5346
저히	-5347
조차	-5348
치가	-5349
판에	-5350
픈데	-5351
하던	-5352
해지	-5353
휴직	-5354
희야	-5355
▁가던	-5356
▁가도	-5357
▁가장	-5358
▁감시	-5359
▁걔가	-5360
▁거냐	-5361
▁고백	-5362
▁고아	-5363
▁공간	-5364
▁공지	-5365
▁과연	-5366
▁과외	-5367
▁교환	-5368
▁국어	-5369
▁그어	-5370
▁금고	-5371
▁기준	-5372
▁김씨	-5373
▁꼬맹	-5374
▁나머	-5375
▁나무	-5376
▁낫지	-5377
▁내에	-5378
▁노인	-5379
▁놈은	-5380
▁눈알	-5381
▁늙은	-5382
▁니돈	-5383
▁다물	-5384
▁단체	-5385
▁담임	-5386
▁대출	-5387
▁대회	-5388
▁더는	-5389
▁던져	-5390
▁되죠	-5391
▁될거	-5392
▁따르	-5393
▁떡볶	-5394
▁마다	-5395
▁먹지	-5396
▁면목	-5397
▁모아	-5398
▁목을	-5399
▁뭐니	-5400
▁미래	-5401
▁민선	-5402
▁박혀	-5403
▁받기	-5404
▁밤길	-5405
▁보호	-5406
▁부른	-5407
▁불려	-5408
▁사인	-5409
▁살만	-5410
▁살빼	-5411
▁상처	-5412
▁생길	-5413
▁섭섭	-5414
▁성공	-5415
▁성형	-5416
▁센스	-5417
▁술을	-5418
▁신용	-5419
▁싸우	-5420
▁쑤셔	-5421
▁아야	-5422
▁안아	-5423
▁안지	-5424
▁암튼	-5425
▁애기	-5426
▁애미	-5427
▁얘는	-5428
▁어떠	-5429
▁얻어	-5430
▁역겹	-5431
▁연가	-5432
▁연예	-5433
▁열면	-5434
▁예예	-5435
▁옷만	-5436
▁옷은	-5437
▁완성	-5438
▁왜저	-5439
▁요금	-5440
▁욕먹	-5441
▁원만	-5442
▁월세	-5443
▁유지	-5444
▁으응	-5445
▁의도	-5446
▁의사	-5447
▁이새	-5448
▁작은	-5449
▁잘나	-5450
▁잘지	-5451
▁저래	-5452
▁적은	-5453
▁전교	-5454
▁조건	-5455
▁종이	-5456
▁좋았	-5457
▁죽든	-5458
▁죽였	-5459
▁지수	-5460
▁직업	-5461
▁집은	-5462
▁짧은	-5463
▁찌를	-5464
▁차로	-5465
▁처방	-5466
▁체크	-5467
▁최고	-5468
▁출산	-5469
▁취직	-5470
▁콩팥	-5471
▁쿵쿵	-5472
▁타서	-5473
▁택배	-5474
▁평소	-5475
▁폭력	-5476
▁폭로	-5477
▁폭탄	-5478
▁폭행	-5479
▁한게	-5480
▁한심	-5481
▁험한	-5482
▁훔쳐	-5483
▁훨씬	-5484
▁힘이	-5485
가면서	-5486
갈거야	-5487
갑니다	-5488
같은게	-5489
것들은	-5490
는건가	-5491
더라도	-5492
된다고	-5493
들어서	-5494
들에게	-5495
등학생	-5496
려구요	-5497
말아줘	-5498
손으로	-5499
식이면	-5500
어야지	-5501
었나요	-5502
온거야	-5503
은거지	-5504
지마라	-5505
치지마	-5506
하하하	-5507
한것도	-5508
할꺼야	-5509
할께요	-5510
할텐데	-5511
해주고	-5512
▁가고싶	-5513
▁가는거	-5514
▁가려서	-5515
▁가시죠	-5516
▁가진게	-5517
▁간다고	-5518
▁강아지	-5519
▁같네요	-5520
▁같으면	-5521
▁건드려	-5522
▁곳으로	-5523
▁괜찮은	-5524
▁귀찮게	-5525
▁그러나	-5526
▁그런지	-5527
▁근처에	-5528
▁기억이	-5529
▁길동아	-5530
▁길동이	-5531
▁김주임	-5532
▁꼬마야	-5533
▁나와야	-5534
▁남한테	-5535
▁내놓으	-5536
▁내말이	-5537
▁내일도	-5538
▁너같이	-5539
▁너네는	-5540
▁노래방	-5541
▁노력해	-5542
▁누나가	-5543
▁느려서	-5544
▁능력도	-5545
▁늦으면	-5546
▁당신들	-5547
▁대화를	-5548
▁데리러	-5549
▁도저히	-5550
▁돈주고	-5551
▁돼지가	-5552
▁됐다고	-5553
▁될거야	-5554
▁뒤진다	-5555
▁드리면	-5556
▁때부터	-5557
▁떨어진	-5558
▁만원씩	-5559
▁많아요	-5560
▁말대로	-5561
▁말았어	-5562
▁말한거	-5563
▁말해서	-5564
▁말해주	-5565
▁말했어	-5566
▁매니저	-5567
▁머하냐	-5568
▁멋대로	-5569
▁모르면	-5570
▁무섭게	-5571
▁문열어	-5572
▁뭐라도	-5573
▁뭔소리	-5574
▁민수야	-5575
▁믿어줘	-5576
▁방법이	-5577
▁백만원	-5578
▁버스비	-5579
▁보이네	-5580
▁불쌍한	-5581
▁비상금	-5582
▁사진은	-5583
▁생겼네	-5584
▁싫어서	-5585
▁싶다고	-5586
▁싸구려	-5587
▁아는게	-5588
▁아들을	-5589
▁아버님	-5590
▁아이는	-5591
▁아이들	-5592
▁알바생	-5593
▁알아야	-5594
▁어린이	-5595
▁어쩌다	-5596
▁여자랑	-5597
▁오라면	-5598
▁오빠는	-5599
▁오천원	-5600
▁왜이리	-5601
▁우리반	-5602
▁우습게	-5603
▁웃기다	-5604
▁원하시	-5605
▁월요일	-5606
▁음료수	-5607
▁이따위	-5608
▁이사님	-5609
▁이유는	-5610
▁일이라	-5611
▁입으로	-5612
▁있어도	-5613
▁있었네	-5614
▁잖아요	-5615
▁저새끼	-5616
▁정리해	-5617
▁좋아보	-5618
▁줄거야	-5619
▁지방대	-5620
▁집에나	-5621
▁찌른다	-5622
▁차리지	-5623
▁찾아봐	-5624
▁책상에	-5625
▁탕비실	-5626
▁틀린말	-5627
▁하루에	-5628
▁하지말	-5629
▁하하하	-5630
▁할건데	-5631
▁해드릴	-5632
▁해서요	-5633
▁해주는	-5634
▁헛소문	-5635
거같은데	-5636
는거예요	-5637
란말이야	-5638
야되는데	-5639
지말라고	-5640
하는거지	-5641
▁가정교육	-5642
▁가져와라	-5643
▁같아서요	-5644
▁궁금하지	-5645
▁그래서요	-5646
▁그렇잖아	-5647
▁길동씨는	-5648
▁김대리가	-5649
▁꼬라지가	-5650
▁나같으면	-5651
▁나오라고	-5652
▁나한테만	-5653
▁내려놓고	-5654
▁대리님이	-5655
▁들어가서	-5656
▁들었는데	-5657
▁만만하냐	-5658
▁말했는데	-5659
▁모르니까	-5660
▁못생겼어	-5661
▁못알아듣	-5662
▁못차렸네	-5663
▁못하겠다	-5664
▁무시하냐	-5665
▁무시하는	-5666
▁문제라도	-5667
▁보내줄게	-5668
▁빌려줄게	-5669
▁빌려줄래	-5670
▁사람이랑	-5671
▁사오라고	-5672
▁상관인데	-5673
▁생각하면	-5674
▁생일인데	-5675
▁소리하네	-5676
▁아니거든	-5677
▁아니고요	-5678
▁아버지가	-5679
▁안통하네	-5680
▁안했는데	-5681
▁애들이랑	-5682
▁어디까지	-5683
▁어려워요	-5684
▁어머니가	-5685
▁얼마전에	-5686
▁왜그래요	-5687
▁왜그렇게	-5688
▁웃으면서	-5689
▁원하시는	-5690
▁육아휴직	-5691
▁이런것도	-5692
▁인수인계	-5693
▁있으세요	-5694
▁자리에서	-5695
▁정리해서	-5696
▁좋다는게	-5697
▁죽고싶지	-5698
▁죽어버릴	-5699
▁준비해서	-5700
▁중요하지	-5701
▁지나간다	-5702
▁지랄이야	-5703
▁초등학교	-5704
▁협박하는	-5705
▁힘들다고	-5706
죄송합니다	-5707
▁가야하는데	-5708
▁건드리지마	-5709
▁너무하세요	-5710
▁못했습니다	-5711
▁비밀번호를	-5712
▁시끄러워서	-5713
▁신고합니다	-5714
▁아시잖아요	-5715
▁알려주시면	-5716
▁없었습니다	-5717
▁있으신가요	-5718
▁너무하십니다	-5719
▁말씀이신가요	-5720
▁말씀이십니까	-5721
▁다녀오겠습니다	-5722
▁무슨말씀이신지	-5723
▁주의하겠습니다	-5724
▁겪	-5725
▁광	-5726
▁꼰	-5727
▁끓	-5728
▁넉	-5729
▁는	-5730
▁댓	-5731
▁랑	-5732
▁뭡	-5733
▁벙	-5734
▁씩	-5735
▁앵	-5736
▁엎	-5737
▁염	-5738
▁옳	-5739
▁왼	-5740
▁웅	-5741
▁잇	-5742
▁즉	-5743
▁촉	-5744
▁캐	-5745
▁튕	-5746
▁틴	-5747
▁폼	-5748
▁푼	-5749
▁혈	-5750
▁황	-5751
가도	-5752
거니	-5753
거다	-5754
구야	-5755
구질	-5756
그냥	-5757
그럼	-5758
나라	-5759
누나	-5760
능이	-5761
다시	-5762
단히	-5763
당해	-5764
더만	-5765
돼서	-5766
된다	-5767
때문	-5768
땜에	-5769
렸냐	-5770
로서	-5771
리네	-5772
리씨	-5773
마냥	-5774
말도	-5775
못해	-5776
물을	-5777
박혀	-5778
보단	-5779
비를	-5780
빼고	-5781
사는	-5782
사항	-5783
산부	-5784
수록	-5785
스틱	-5786
신다	-5787
안을	-5788
어머	-5789
여도	-5790
연아	-5791
연히	-5792
온다	-5793
와요	-5794
움찔	-5795
원해	-5796
으론	-5797
이러	-5798
있게	-5799
자료	-5800
자를	-5801
잖어	-5802
잘못	-5803
장난	-5804
줘서	-5805
진이	-5806
징어	-5807
천히	-5808
커피	-5809
패드	-5810
필요	-5811
할까	-5812
할께	-5813
함에	-5814
현이	-5815
▁가끔	-5816
▁감방	-5817
▁개가	-5818
▁개나	-5819
▁개봉	-5820
▁걸리	-5821
▁걸린	-5822
▁결국	-5823
▁골목	-5824
▁구멍	-5825
▁구질	-5826
▁굼벵	-5827
▁그깟	-5828
▁기가	-5829
▁기계	-5830
▁기생	-5831
▁길이	-5832
▁김지	-5833
▁까발	-5834
▁끌고	-5835
▁끼어	-5836
▁나네	-5837
▁내거	-5838
▁너와	-5839
▁넣고	-5840
▁느낌	-5841
▁달만	-5842
▁달아	-5843
▁대접	-5844
▁될지	-5845
▁둘째	-5846
▁딱히	-5847
▁땅콩	-5848
▁뜨겁	-5849
▁라면	-5850
▁마저	-5851
▁만화	-5852
▁말지	-5853
▁맞게	-5854
▁머야	-5855
▁먹자	-5856
▁메일	-5857
▁명심	-5858
▁명예	-5859
▁모텔	-5860
▁몸을	-5861
▁못나	-5862
▁못배	-5863
▁무례	-5864
▁물을	-5865
▁물품	-5866
▁뭘로	-5867
▁바라	-5868
▁바른	-5869
▁반려	-5870
▁반반	-5871
▁받으	-5872
▁받지	-5873
▁밥이	-5874
▁방에	-5875
▁방침	-5876
▁버릇	-5877
▁본데	-5878
▁봐줄	-5879
▁봤나	-5880
▁붙어	-5881
▁붙잡	-5882
▁빠른	-5883
▁사건	-5884
▁사야	-5885
▁사줘	-5886
▁살짝	-5887
▁샌드	-5888
▁서두	-5889
▁선약	-5890
▁성질	-5891
▁소릴	-5892
▁소용	-5893
▁속도	-5894
▁순진	-5895
▁신규	-5896
▁싶네	-5897
▁싸이	-5898
▁쓴다	-5899
▁안남	-5900
▁안둬	-5901
▁안먹	-5902
▁안받	-5903
▁안주	-5904
▁안하	-5905
▁않네	-5906
▁알게	-5907
▁앞이	-5908
▁애플	-5909
▁어쩜	-5910
▁억만	-5911
▁엉덩	-5912
▁여드	-5913
▁오고	-5914
▁외근	-5915
▁운영	-5916
▁워크	-5917
▁위생	-5918
▁이동	-5919
▁이후	-5920
▁임원	-5921
▁자유	-5922
▁자존	-5923
▁잘들	-5924
▁재형	-5925
▁쟤랑	-5926
▁전학	-5927
▁정글	-5928
▁제게	-5929
▁졸라	-5930
▁좀더	-5931
▁죄가	-5932
▁주먹	-5933
▁줄까	-5934
▁지났	-5935
▁지어	-5936
▁질러	-5937
▁질문	-5938
▁집중	-5939
▁짤라	-5940
▁쪽이	-5941
▁차릴	-5942
▁찾을	-5943
▁채워	-5944
▁출발	-5945
▁출신	-5946
▁컴플	-5947
▁토달	-5948
▁틴트	-5949
▁파일	-5950
▁학폭	-5951
▁한쪽	-5952
▁했고	-5953
▁화내	-5954
▁확씨	-5955
▁훼손	-5956
까지는	-5957
꺼니까	-5958
난다고	-5959
놓으면	-5960
는거다	-5961
다니는	-5962
되는데	-5963
머리가	-5964
모가지	-5965
버려야	-5966
버리게	-5967
부모님	-5968
셨나요	-5969
시고요	-5970
시구요	-5971
아니냐	-5972
앞에서	-5973
없잖아	-5974
였는데	-5975
으로는	-5976
이라면	-5977
주라고	-5978
하겠지	-5979
한가봐	-5980
해주는	-5981
했나봐	-5982
헤어져	-5983
▁가방이	-5984
▁강인턴	-5985
▁계약서	-5986
▁고파서	-5987
▁곳에서	-5988
▁공짜로	-5989
▁그랬지	-5990
▁기다릴	-5991
▁나에게	-5992
▁난쟁이	-5993
▁남편은	-5994
▁내놓고	-5995
▁내놓지	-5996
▁너처럼	-5997
▁니새끼	-5998
▁다녀라	-5999
▁다녀요	-6000
▁다니기	-6001
▁담배피	-6002
▁당신도	-6003
▁동생이	-6004
▁됐잖아	-6005
▁되니까	-6006
▁똑같아	-6007
▁로미씨	-6008
▁립스틱	-6009
▁만나는	-6010
▁많다고	-6011
▁많은거	-6012
▁말씀은	-6013
▁머리에	-6014
▁먹어요	-6015
▁명심해	-6016
▁모가지	-6017
▁모르네	-6018
▁목숨만	-6019
▁못차렸	-6020
▁못하겠	-6021
▁못하지	-6022
▁못해줘	-6023
▁무시해	-6024
▁뭐냐고	-6025
▁뭐해요	-6026
▁뭡니까	-6027
▁바람피	-6028
▁밖으로	-6029
▁받았어	-6030
▁밥이나	-6031
▁벗어봐	-6032
▁보기만	-6033
▁보라고	-6034
▁보자고	-6035
▁봐야지	-6036
▁봤어요	-6037
▁비밀로	-6038
▁비행기	-6039
▁빌려가	-6040
▁사오면	-6041
▁사줬어	-6042
▁사진이	-6043
▁산다고	-6044
▁살고싶	-6045
▁생긴게	-6046
▁세상이	-6047
▁소개팅	-6048
▁손녀를	-6049
▁손으로	-6050
▁송대리	-6051
▁쓰려고	-6052
▁아이를	-6053
▁안나오	-6054
▁안내놔	-6055
▁안돼면	-6056
▁안어울	-6057
▁안타깝	-6058
▁안하지	-6059
▁안한다	-6060
▁알겠냐	-6061
▁어때요	-6062
▁어렵게	-6063
▁어르신	-6064
▁어울릴	-6065
▁언젠데	-6066
▁얼만데	-6067
▁업무는	-6068
▁없네요	-6069
▁연락도	-6070
▁연예인	-6071
▁오늘만	-6072
▁오징어	-6073
▁오타쿠	-6074
▁유튜브	-6075
▁음식이	-6076
▁이러다	-6077
▁이런데	-6078
▁이쁜데	-6079
▁일인데	-6080
▁임산부	-6081
▁있는게	-6082
▁있다는	-6083
▁잊었어	-6084
▁자네를	-6085
▁자리가	-6086
▁자식들	-6087
▁잘모르	-6088
▁잘해라	-6089
▁저에게	-6090
▁전에도	-6091
▁정규직	-6092
▁정도로	-6093
▁정보가	-6094
▁주셔야	-6095
▁죽어라	-6096
▁죽이는	-6097
▁지겨워	-6098
▁지연씨	-6099
▁직원이	-6100
▁집까지	-6101
▁찌그러	-6102
▁천천히	-6103
▁청소부	-6104
▁쳐다보	-6105
▁커피가	-6106
▁커피를	-6107
▁커피타	-6108
▁털어서	-6109
▁토요일	-6110
▁팩트를	-6111
▁하나가	-6112
▁하는지	-6113
▁하려면	-6114
▁하여간	-6115
▁학생이	-6116
▁한것도	-6117
▁한번도	-6118
▁한시간	-6119
▁합시다	-6120
▁합의금	-6121
▁해보시	-6122
▁해봐라	-6123
▁해주라	-6124
▁현우야	-6125
▁형들이	-6126
▁혼자만	-6127
▁확실히	-6128
▁환자분	-6129
고싶어서	-6130
는건가요	-6131
다는거야	-6132
다니깐요	-6133
보이는데	-6134
었잖아요	-6135
이잖아요	-6136
잖습니까	-6137
장선생님	-6138
한다니까	-6139
할테니까	-6140
해가지고	-6141
▁가만안둬	-6142
▁가져올게	-6143
▁가족들이	-6144
▁가주세요	-6145
▁경찰한테	-6146
▁과장님이	-6147
▁괜찮아요	-6148
▁구질구질	-6149
▁궁금해서	-6150
▁그러게요	-6151
▁그런가요	-6152
▁그렇게는	-6153
▁그정도도	-6154
▁나발이고	-6155
▁다시한번	-6156
▁돈없는데	-6157
▁만들어서	-6158
▁말입니까	-6159
▁말했잖아	-6160
▁모르겠고	-6161
▁모릅니다	-6162
▁목소리가	-6163
▁몰랐어요	-6164
▁못합니다	-6165
▁벌써부터	-6166
▁부탁해요	-6167
▁불편해서	-6168
▁빌려주는	-6169
▁사랑하는	-6170
▁사오라면	-6171
▁생각하는	-6172
▁소리에요	-6173
▁심하신거	-6174
▁싸가지가	-6175
▁쓰레기야	-6176
▁아니구요	-6177
▁아이패드	-6178
▁안봤는데	-6179
▁안줬잖아	-6180
▁알아듣네	-6181
▁알아서해	-6182
▁알았는데	-6183
▁어디가서	-6184
▁얼마있냐	-6185
▁없으세요	-6186
▁우리가족	-6187
▁우리아빠	-6188
▁융통성이	-6189
▁음식에서	-6190
▁이러고도	-6191
▁이사람이	-6192
▁이자식이	-6193
▁있었는데	-6194
▁재미없어	-6195
▁재밌잖아	-6196
▁저한테만	-6197
▁죽어야돼	-6198
▁죽어야지	-6199
▁준비하고	-6200
▁직장생활	-6201
▁친구들이	-6202
▁필요하신	-6203
▁학교생활	-6204
▁해야하는	-6205
▁했는데요	-6206
▁헤어지는	-6207
▁확인하고	-6208
버리기전에	-6209
하지마세요	-6210
해주십시오	-6211
▁나왔습니다	-6212
▁말씀이시죠	-6213
▁무슨일인데	-6214
▁미안합니다	-6215
▁믿어주세요	-6216
▁사회생활을	-6217
▁쓰겠습니다	-6218
▁어디있어요	-6219
▁왜그러는데	-6220
▁이러십니까	-6221
▁이렇게까지	-6222
▁잘못했나요	-6223
▁정말입니다	-6224
▁친구사이에	-6225
▁말씀해주시면	-6226
▁살려주십시오	-6227
▁죽여버리겠다	-6228
▁죽여버릴꺼야	-6229
▁지나치시네요	-6230
▁뉴	-6231
▁벽	-6232
▁빽	-6233
▁뻥	-6234
▁삶	-6235
▁셋	-6236
▁썰	-6237
▁을	-6238
▁잤	-6239
▁젓	-6240
▁좁	-6241
▁좆	-6242
▁짬	-6243
▁쪄	-6244
▁첨	-6245
▁컨	-6246
▁탔	-6247
▁턱	-6248
▁텅	-6249
▁퉁	-6250
▁틱	-6251
▁픽	-6252
▁히	-6253
갖고	-6254
같애	-6255
같지	-6256
거요	-6257
것좀	-6258
겠죠	-6259
고과	-6260
구먼	-6261
그만	-6262
급자	-6263
기간	-6264
기면	-6265
깔이	-6266
꺼면	-6267
네가	-6268
놈의	-6269
누라	-6270
는줄	-6271
니가	-6272
다나	-6273
대고	-6274
돈이	-6275
돌아	-6276
됐어	-6277
둔다	-6278
드시	-6279
듣고	-6280
란다	-6281
랑은	-6282
러드	-6283
로그	-6284
로만	-6285
린거	-6286
맞고	-6287
메라	-6288
민아	-6289
병님	-6290
보관	-6291
본다	-6292
봐서	-6293
부러	-6294
비만	-6295
뿐만	-6296
석이	-6297
성을	-6298
세여	-6299
수고	-6300
아치	-6301
었니	-6302
었던	-6303
오늘	-6304
온거	-6305
왔네	-6306
은게	-6307
을지	-6308
의가	-6309
이래	-6310
이를	-6311
이익	-6312
이틀	-6313
입고	-6314
작권	-6315
잔아	-6316
제발	-6317
제품	-6318
주가	-6319
주실	-6320
주자	-6321
준비	-6322
줘도	-6323
지르	-6324
집어	-6325
짜리	-6326
책임	-6327
트에	-6328
폭력	-6329
하단	-6330
하든	-6331
학금	-6332
한적	-6333
할지	-6334
했니	-6335
히는	-6336
▁가짜	-6337
▁갈취	-6338
▁건드	-6339
▁걸렸	-6340
▁경쟁	-6341
▁계신	-6342
▁곳에	-6343
▁관련	-6344
▁귀여	-6345
▁규칙	-6346
▁그나	-6347
▁근거	-6348
▁기부	-6349
▁기술	-6350
▁기자	-6351
▁김에	-6352
▁꺄악	-6353
▁꼴을	-6354
▁나빴	-6355
▁날아	-6356
▁날이	-6357
▁남이	-6358
▁낳고	-6359
▁내차	-6360
▁넉넉	-6361
▁넘길	-6362
▁노숙	-6363
▁높은	-6364
▁누워	-6365
▁눈도	-6366
▁다냐	-6367
▁다쳐	-6368
▁다쳤	-6369
▁단골	-6370
▁달고	-6371
▁달달	-6372
▁닮은	-6373
▁담에	-6374
▁대꾸	-6375
▁대들	-6376
▁돼서	-6377
▁되요	-6378
▁들이	-6379
▁따져	-6380
▁때가	-6381
▁뜻은	-6382
▁라고	-6383
▁막아	-6384
▁만점	-6385
▁만져	-6386
▁말라	-6387
▁망신	-6388
▁맞네	-6389
▁맡긴	-6390
▁매장	-6391
▁머가	-6392
▁모금	-6393
▁모은	-6394
▁모임	-6395
▁못내	-6396
▁무겁	-6397
▁묶어	-6398
▁묻어	-6399
▁뭐긴	-6400
▁미쳐	-6401
▁민서	-6402
▁민철	-6403
▁믿지	-6404
▁바꿀	-6405
▁바지	-6406
▁반차	-6407
▁발언	-6408
▁배운	-6409
▁배웠	-6410
▁백원	-6411
▁번을	-6412
▁벙어	-6413
▁벼텨	-6414
▁보관	-6415
▁보답	-6416
▁보소	-6417
▁보통	-6418
▁복잡	-6419
▁빨아	-6420
▁새거	-6421
▁새도	-6422
▁생리	-6423
▁서봐	-6424
▁선임	-6425
▁세차	-6426
▁수작	-6427
▁슬슬	-6428
▁시킬	-6429
▁식구	-6430
▁실력	-6431
▁심심	-6432
▁썼어	-6433
▁쓰게	-6434
▁쓰지	-6435
▁아악	-6436
▁안경	-6437
▁안고	-6438
▁않지	-6439
▁알릴	-6440
▁얘네	-6441
▁얘랑	-6442
▁어두	-6443
▁어쨋	-6444
▁없긴	-6445
▁없죠	-6446
▁역할	-6447
▁오토	-6448
▁완료	-6449
▁욕심	-6450
▁욕을	-6451
▁우수	-6452
▁위한	-6453
▁윗분	-6454
▁유도	-6455
▁이길	-6456
▁일좀	-6457
▁일할	-6458
▁잃을	-6459
▁입다	-6460
▁입맛	-6461
▁장담	-6462
▁쟤가	-6463
▁적어	-6464
▁전염	-6465
▁제삿	-6466
▁죄를	-6467
▁주기	-6468
▁주시	-6469
▁주실	-6470
▁주워	-6471
▁주인	-6472
▁줄도	-6473
▁줘요	-6474
▁지인	-6475
▁지적	-6476
▁질질	-6477
▁집착	-6478
▁찍고	-6479
▁착한	-6480
▁채용	-6481
▁철수	-6482
▁최소	-6483
▁치는	-6484
▁침해	-6485
▁칼은	-6486
▁커플	-6487
▁콜라	-6488
▁키웠	-6489
▁토나	-6490
▁티켓	-6491
▁판매	-6492
▁패딩	-6493
▁피가	-6494
▁픽업	-6495
▁해놔	-6496
▁흉내	-6497
가는데	-6498
갔는데	-6499
같은거	-6500
겠구나	-6501
기다려	-6502
는건지	-6503
는데도	-6504
니까요	-6505
던데요	-6506
듭니다	-6507
란말야	-6508
리는게	-6509
말이지	-6510
받아서	-6511
버리자	-6512
보자고	-6513
사장님	-6514
샐러드	-6515
수밖에	-6516
스러워	-6517
안하면	-6518
았어요	-6519
애들은	-6520
에서도	-6521
였어요	-6522
였잖아	-6523
왔다고	-6524
이벤트	-6525
인가봐	-6526
있잖아	-6527
정에서	-6528
주겠다	-6529
주머니	-6530
줬다고	-6531
지는거	-6532
하고는	-6533
하구나	-6534
하기가	-6535
하는것	-6536
하더라	-6537
하시네	-6538
했구나	-6539
▁가리고	-6540
▁갖고와	-6541
▁같은건	-6542
▁같은게	-6543
▁개소리	-6544
▁경찰이	-6545
▁곤란해	-6546
▁구해오	-6547
▁규정상	-6548
▁그따위	-6549
▁그러긴	-6550
▁그런줄	-6551
▁그렇긴	-6552
▁기분도	-6553
▁기생충	-6554
▁까라면	-6555
▁나가는	-6556
▁나가면	-6557
▁나니까	-6558
▁나머지	-6559
▁나쁘다	-6560
▁나오네	-6561
▁나온다	-6562
▁나이에	-6563
▁내야지	-6564
▁내일에	-6565
▁너죽고	-6566
▁너희가	-6567
▁놀다가	-6568
▁놀러가	-6569
▁놀리면	-6570
▁놀이터	-6571
▁늙어서	-6572
▁니네집	-6573
▁다녀서	-6574
▁다음엔	-6575
▁담배를	-6576
▁당신의	-6577
▁돈가져	-6578
▁돈인데	-6579
▁돌았나	-6580
▁동생아	-6581
▁된거야	-6582
▁드디어	-6583
▁드세요	-6584
▁등록금	-6585
▁따뜻한	-6586
▁딸한테	-6587
▁때리면	-6588
▁떡볶이	-6589
▁뜨거운	-6590
▁레벨업	-6591
▁마시면	-6592
▁말씀해	-6593
▁말아요	-6594
▁말아주	-6595
▁말했지	-6596
▁맛있는	-6597
▁먹어서	-6598
▁모아서	-6599
▁못나가	-6600
▁못하냐	-6601
▁무릎꿇	-6602
▁뭔가요	-6603
▁밑에서	-6604
▁반지하	-6605
▁발전이	-6606
▁봐주면	-6607
▁봐줘야	-6608
▁봤다고	-6609
▁부족해	-6610
▁불쌍해	-6611
▁사먹을	-6612
▁사이즈	-6613
▁살라고	-6614
▁살려내	-6615
▁새끼는	-6616
▁생각도	-6617
▁생겼다	-6618
▁서두르	-6619
▁선택권	-6620
▁수밖에	-6621
▁신고하	-6622
▁신고해	-6623
▁신입은	-6624
▁싫다면	-6625
▁싸이코	-6626
▁아까는	-6627
▁아껴서	-6628
▁아니네	-6629
▁안대리	-6630
▁안되어	-6631
▁안보고	-6632
▁앞으론	-6633
▁양아치	-6634
▁어디지	-6635
▁어려우	-6636
▁어울려	-6637
▁어쩌냐	-6638
▁어쩔래	-6639
▁어처피	-6640
▁억지로	-6641
▁얼굴로	-6642
▁얼마가	-6643
▁엄마랑	-6644
▁없나봐	-6645
▁없다며	-6646
▁여러번	-6647
▁영희씨	-6648
▁옆에서	-6649
▁오만원	-6650
▁오빠도	-6651
▁오세요	-6652
▁요즘은	-6653
▁운전을	-6654
▁움직여	-6655
▁원장님	-6656
▁으아아	-6657
▁음식을	-6658
▁의미로	-6659
▁이봐요	-6660
▁이뻐서	-6661
▁이쁘고	-6662
▁이상은	-6663
▁인사팀	-6664
▁일하러	-6665
▁일해야	-6666
▁입냄새	-6667
▁있냐고	-6668
▁있었어	-6669
▁자체가	-6670
▁잘못된	-6671
▁잘할게	-6672
▁저작권	-6673
▁점심은	-6674
▁정도가	-6675
▁정말로	-6676
▁정현이	-6677
▁죄송해	-6678
▁주임님	-6679
▁죽었어	-6680
▁죽이면	-6681
▁중으로	-6682
▁지워줘	-6683
▁지혜야	-6684
▁쪽팔려	-6685
▁차가운	-6686
▁쳐맞기	-6687
▁쳐박혀	-6688
▁취소해	-6689
▁카메라	-6690
▁퇴근할	-6691
▁피부가	-6692
▁피해보	-6693
▁핑계대	-6694
▁하던지	-6695
▁하루종	-6696
▁한대다	-6697
▁할까요	-6698
▁했나요	-6699
▁했더니	-6700
▁행동을	-6701
▁허락도	-6702
▁헤어진	-6703
▁형님이	-6704
▁회식도	-6705
▁힘들것	-6706
애들한테	-6707
였습니다	-6708
하는데요	-6709
하셨어요	-6710
하셨으면	-6711
해야하는	-6712
▁감사해요	-6713
▁갑자기요	-6714
▁갚을거야	-6715
▁거짓말을	-6716
▁걸어다니	-6717
▁괜찮은데	-6718
▁교통사고	-6719
▁그때까지	-6720
▁그런것도	-6721
▁그럴거면	-6722
▁기본적인	-6723
▁김대리님	-6724
▁나와야지	-6725
▁나왔는데	-6726
▁내리라고	-6727
▁너무하네	-6728
▁누구신데	-6729
▁니돈으로	-6730
▁다녀야지	-6731
▁다니는데	-6732
▁답답해서	-6733
▁더이상은	-6734
▁돈없어요	-6735
▁돌려주면	-6736
▁드릴께요	-6737
▁드립니다	-6738
▁따라하지	-6739
▁떨어져서	-6740
▁똑바로해	-6741
▁뚱뚱하고	-6742
▁말해줘야	-6743
▁맞아볼래	-6744
▁몇번째야	-6745
▁모르는데	-6746
▁못생기고	-6747
▁미친것아	-6748
▁받으려고	-6749
▁버스비가	-6750
▁보여줄게	-6751
▁보자보자	-6752
▁부탁하면	-6753
▁불편하게	-6754
▁불편하면	-6755
▁빌려주지	-6756
▁빌려줘봐	-6757
▁뿐이에요	-6758
▁사람답게	-6759
▁사람으로	-6760
▁사실인데	-6761
▁사준거야	-6762
▁생각해도	-6763
▁손가락을	-6764
▁손가락이	-6765
▁스타일이	-6766
▁아무거나	-6767
▁안되나요	-6768
▁안둘거야	-6769
▁않았는데	-6770
▁어디가냐	-6771
▁어머님이	-6772
▁없을까요	-6773
▁예전부터	-6774
▁오기전에	-6775
▁와이프가	-6776
▁움직이면	-6777
▁이러시는	-6778
▁이자식아	-6779
▁인사고과	-6780
▁일처리가	-6781
▁일하는데	-6782
▁있어야지	-6783
▁있을거야	-6784
▁있을텐데	-6785
▁잘못이지	-6786
▁저래라야	-6787
▁저번주에	-6788
▁좋아해서	-6789
▁죽겠는데	-6790
▁지은씨는	-6791
▁직원들은	-6792
▁하고싶은	-6793
▁하는거지	-6794
▁하지마라	-6795
거같습니다	-6796
버릴거니까	-6797
▁개인적으로	-6798
▁괴롭히지마	-6799
▁그건아닌데	-6800
▁그렇긴한데	-6801
▁기어오르네	-6802
▁남자친구는	-6803
▁돌려줘야해	-6804
▁말씀하시면	-6805
▁보겠습니다	-6806
▁빌려주는게	-6807
▁빌려주세요	-6808
▁생각하지마	-6809
▁생일선물로	-6810
▁소개시켜줘	-6811
▁안갚았잖아	-6812
▁알았으니까	-6813
▁약속있어요	-6814
▁오랜만이야	-6815
▁정신차려라	-6816
▁풀어주세요	-6817
▁헤어지자는	-6818
▁화장실에서	-6819
해보겠습니다	-6820
▁그러시는데요	-6821
▁그러지마세요	-6822
▁부탁드릴게요	-6823
▁사과해주세요	-6824
▁협박하는거야	-6825
▁명심하겠습니다	-6826
▁무슨일이십니까	-6827
▁조심하겠습니다	-6828
▁깎	-6829
▁놨	-6830
▁덤	-6831
▁돋	-6832
▁띠	-6833
▁밟	-6834
▁뵙	-6835
▁브	-6836
▁빙	-6837
▁싼	-6838
▁쏟	-6839
▁왤	-6840
▁쩔	-6841
▁측	-6842
▁컵	-6843
▁쿠	-6844
▁팍	-6845
▁페	-6846
▁횡	-6847
▁효	-6848
간거	-6849
감이	-6850
계가	-6851
고기	-6852
곳에	-6853
군데	-6854
궁창	-6855
그런	-6856
급이	-6857
길에	-6858
까진	-6859
냉이	-6860
놈아	-6861
놔야	-6862
는걸	-6863
다구	-6864
다음	-6865
대학	-6866
뒤룩	-6867
들었	-6868
때도	-6869
랗게	-6870
러져	-6871
레인	-6872
려줘	-6873
로써	-6874
리셉	-6875
리어	-6876
린데	-6877
마음	-6878
만나	-6879
만에	-6880
맛이	-6881
머스	-6882
먹은	-6883
먹이	-6884
명이	-6885
무슨	-6886
뭐냐	-6887
미리	-6888
배로	-6889
보는	-6890
보시	-6891
봐봐	-6892
분도	-6893
비는	-6894
사도	-6895
사를	-6896
새도	-6897
서로	-6898
석아	-6899
스에	-6900
시킨	-6901
실까	-6902
쓰고	-6903
안나	-6904
약속	-6905
얼굴	-6906
역국	-6907
오라	-6908
운전	-6909
위에	-6910
으실	-6911
은품	-6912
의로	-6913
이든	-6914
일만	-6915
있니	-6916
자네	-6917
장소	-6918
저기	-6919
적도	-6920
전화	-6921
져야	-6922
좋아	-6923
주게	-6924
죽여	-6925
줘라	-6926
진씨	-6927
치냐	-6928
치워	-6929
컹크	-6930
통이	-6931
퇴근	-6932
포트	-6933
하며	-6934
학원	-6935
한것	-6936
해줄	-6937
햇어	-6938
향이	-6939
혔어	-6940
호씨	-6941
화점	-6942
히게	-6943
히려	-6944
▁가기	-6945
▁가질	-6946
▁간이	-6947
▁갈까	-6948
▁갈비	-6949
▁강남	-6950
▁강매	-6951
▁갚는	-6952
▁개념	-6953
▁개빡	-6954
▁건너	-6955
▁건방	-6956
▁걸릴	-6957
▁것좀	-6958
▁결재	-6959
▁고용	-6960
▁공사	-6961
▁교실	-6962
▁구걸	-6963
▁국가	-6964
▁권리	-6965
▁기안	-6966
▁까칠	-6967
▁깍아	-6968
▁꽤나	-6969
▁꿈도	-6970
▁끝났	-6971
▁끝낼	-6972
▁나아	-6973
▁난다	-6974
▁난리	-6975
▁남들	-6976
▁내내	-6977
▁내도	-6978
▁내릴	-6979
▁내부	-6980
▁내주	-6981
▁너에	-6982
▁네에	-6983
▁놀라	-6984
▁눌러	-6985
▁늦어	-6986
▁니는	-6987
▁니도	-6988
▁다치	-6989
▁단무	-6990
▁당직	-6991
▁당할	-6992
▁당해	-6993
▁더듬	-6994
▁도착	-6995
▁되기	-6996
▁두달	-6997
▁뒤룩	-6998
▁뒤쳐	-6999
▁듣네	-7000
▁듣는	-7001
▁들렸	-7002
▁등신	-7003
▁때도	-7004
▁많고	-7005
▁말던	-7006
▁말조	-7007
▁말좀	-7008
▁맡아	-7009
▁면접	-7010
▁못살	-7011
▁물려	-7012
▁뭐를	-7013
▁뭐어	-7014
▁뭘요	-7015
▁미치	-7016
▁민규	-7017
▁민망	-7018
▁밀린	-7019
▁바나	-7020
▁바다	-7021
▁반찬	-7022
▁반항	-7023
▁발끈	-7024
▁버티	-7025
▁번쩍	-7026
▁베트	-7027
▁보시	-7028
▁본사	-7029
▁봉투	-7030
▁봤냐	-7031
▁봤자	-7032
▁비겁	-7033
▁비교	-7034
▁비꼬	-7035
▁비해	-7036
▁빠지	-7037
▁빨랑	-7038
▁빼라	-7039
▁사례	-7040
▁사유	-7041
▁사직	-7042
▁상식	-7043
▁상실	-7044
▁생색	-7045
▁설탕	-7046
▁소비	-7047
▁속상	-7048
▁손도	-7049
▁쇼핑	-7050
▁수치	-7051
▁술도	-7052
▁숨어	-7053
▁쉬어	-7054
▁시원	-7055
▁신뢰	-7056
▁신문	-7057
▁싫고	-7058
▁심각	-7059
▁싹다	-7060
▁싹싹	-7061
▁쓸모	-7062
▁아기	-7063
▁아따	-7064
▁안와	-7065
▁안준	-7066
▁않니	-7067
▁약을	-7068
▁약점	-7069
▁양반	-7070
▁양해	-7071
▁얼룩	-7072
▁영영	-7073
▁영원	-7074
▁오줌	-7075
▁왔네	-7076
▁왜긴	-7077
▁왠지	-7078
▁외로	-7079
▁요청	-7080
▁욕은	-7081
▁용건	-7082
▁우웩	-7083
▁운이	-7084
▁원망	-7085
▁원숭	-7086
▁유난	-7087
▁으이	-7088
▁음주	-7089
▁이곳	-7090
▁이돈	-7091
▁이르	-7092
▁이옷	-7093
▁이지	-7094
▁인성	-7095
▁일해	-7096
▁입는	-7097
▁입에	-7098
▁입이	-7099
▁잊지	-7100
▁자고	-7101
▁자자	-7102
▁잠만	-7103
▁장님	-7104
▁재워	-7105
▁저게	-7106
▁저승	-7107
▁저의	-7108
▁전체	-7109
▁정시	-7110
▁정한	-7111
▁조언	-7112
▁조퇴	-7113
▁주방	-7114
▁죽지	-7115
▁직무	-7116
▁진실	-7117
▁집도	-7118
▁징계	-7119
▁착용	-7120
▁처럼	-7121
▁촉박	-7122
▁치우	-7123
▁치지	-7124
▁치킨	-7125
▁크지	-7126
▁클럽	-7127
▁태워	-7128
▁택시	-7129
▁퇴직	-7130
▁튀어	-7131
▁티내	-7132
▁퍼트	-7133
▁포장	-7134
▁폭발	-7135
▁피를	-7136
▁학벌	-7137
▁한건	-7138
▁해놓	-7139
▁해당	-7140
▁해오	-7141
▁했네	-7142
▁현재	-7143
▁형도	-7144
▁호두	-7145
▁화를	-7146
▁희정	-7147
▁힘도	-7148
거리고	-7149
거아냐	-7150
것까지	-7151
과장님	-7152
낼거야	-7153
넘어가	-7154
다가는	-7155
다구요	-7156
다보니	-7157
더라구	-7158
되는거	-7159
되니까	-7160
라니요	-7161
려는데	-7162
렸으면	-7163
리셉터	-7164
먹어서	-7165
받은거	-7166
볼께요	-7167
상태가	-7168
서라도	-7169
선생이	-7170
수한테	-7171
시겠다	-7172
시키지	-7173
실까요	-7174
안으로	-7175
않아요	-7176
없다고	-7177
였다고	-7178
으라면	-7179
으셔서	-7180
을수도	-7181
이더라	-7182
이었어	-7183
이예요	-7184
자나요	-7185
자식이	-7186
적이야	-7187
하고싶	-7188
한다며	-7189
한지가	-7190
할머니	-7191
해줘야	-7192
희씨는	-7193
▁가게는	-7194
▁가게에	-7195
▁가야지	-7196
▁강냉이	-7197
▁강제로	-7198
▁갚으면	-7199
▁거지가	-7200
▁거지냐	-7201
▁건데요	-7202
▁건들면	-7203
▁걸어서	-7204
▁고객이	-7205
▁고소할	-7206
▁공부를	-7207
▁괜찮지	-7208
▁괴롭힐	-7209
▁괴롭힘	-7210
▁귓구멍	-7211
▁그래픽	-7212
▁그런걸	-7213
▁그렇다	-7214
▁그모양	-7215
▁그전에	-7216
▁기회다	-7217
▁끝나면	-7218
▁나가봐	-7219
▁나쁘면	-7220
▁나와요	-7221
▁나이든	-7222
▁남자랑	-7223
▁남친이	-7224
▁내꺼야	-7225
▁내말에	-7226
▁너까지	-7227
▁너라고	-7228
▁녀석이	-7229
▁노숙자	-7230
▁눈치껏	-7231
▁눈치는	-7232
▁니들이	-7233
▁다녀야	-7234
▁다녀올	-7235
▁다르게	-7236
▁다리도	-7237
▁다물고	-7238
▁다해서	-7239
▁당하기	-7240
▁당해봐	-7241
▁대기업	-7242
▁대답도	-7243
▁대로만	-7244
▁대표님	-7245
▁독약을	-7246
▁돌려줄	-7247
▁돌아서	-7248
▁됐는데	-7249
▁될텐데	-7250
▁뒤집어	-7251
▁뒷담화	-7252
▁드려야	-7253
▁드려요	-7254
▁들어야	-7255
▁들어요	-7256
▁따라가	-7257
▁떨어질	-7258
▁마누라	-7259
▁막내가	-7260
▁막혀서	-7261
▁만원을	-7262
▁말랬지	-7263
▁말이나	-7264
▁말이면	-7265
▁말인가	-7266
▁말할게	-7267
▁맛있어	-7268
▁맞춰서	-7269
▁머리로	-7270
▁먹고싶	-7271
▁몇인데	-7272
▁모시고	-7273
▁몰라도	-7274
▁못들어	-7275
▁못빌려	-7276
▁못했어	-7277
▁뭐예요	-7278
▁미스김	-7279
▁미역국	-7280
▁민주씨	-7281
▁바보야	-7282
▁바빠요	-7283
▁발가락	-7284
▁밤마다	-7285
▁백화점	-7286
▁범죄자	-7287
▁보내라	-7288
▁보는데	-7289
▁보여줘	-7290
▁본다고	-7291
▁봅시다	-7292
▁부딪혔	-7293
▁부러뜨	-7294
▁부족한	-7295
▁불러서	-7296
▁불러와	-7297
▁불질러	-7298
▁불편해	-7299
▁블로그	-7300
▁빌려준	-7301
▁빠지면	-7302
▁빨리해	-7303
▁뻔뻔한	-7304
▁뽑아서	-7305
▁사기꾼	-7306
▁사실만	-7307
▁사은품	-7308
▁사회에	-7309
▁삭제해	-7310
▁산거야	-7311
▁살아야	-7312
▁살지마	-7313
▁상담원	-7314
▁새끼를	-7315
▁생긴거	-7316
▁생활비	-7317
▁센스가	-7318
▁소름끼	-7319
▁수준이	-7320
▁스토킹	-7321
▁승진도	-7322
▁시간만	-7323
▁시비걸	-7324
▁신경을	-7325
▁싫다는	-7326
▁써보자	-7327
▁쓰라고	-7328
▁아깝다	-7329
▁아끼는	-7330
▁아내가	-7331
▁아빠는	-7332
▁아빠랑	-7333
▁아이돌	-7334
▁아이디	-7335
▁아이폰	-7336
▁아직은	-7337
▁아진짜	-7338
▁아픈데	-7339
▁안다고	-7340
▁안돌려	-7341
▁안되면	-7342
▁안먹어	-7343
▁안오면	-7344
▁안좋은	-7345
▁안죽어	-7346
▁않아서	-7347
▁알겠네	-7348
▁애들을	-7349
▁애플워	-7350
▁어른이	-7351
▁어쨋든	-7352
▁없구나	-7353
▁에이씨	-7354
▁여동생	-7355
▁예의가	-7356
▁오대리	-7357
▁오른쪽	-7358
▁오해는	-7359
▁올려놔	-7360
▁우울증	-7361
▁움직이	-7362
▁유명한	-7363
▁의견을	-7364
▁이따가	-7365
▁이세상	-7366
▁이어폰	-7367
▁인사를	-7368
▁있으시	-7369
▁자격이	-7370
▁작성해	-7371
▁잘못이	-7372
▁잘해주	-7373
▁장학금	-7374
▁재밌게	-7375
▁재형아	-7376
▁전부터	-7377
▁점장님	-7378
▁젓가락	-7379
▁정신적	-7380
▁정확히	-7381
▁제삿날	-7382
▁죽어요	-7383
▁죽여도	-7384
▁죽여봐	-7385
▁죽이러	-7386
▁중간에	-7387
▁줬는데	-7388
▁증거도	-7389
▁지겹다	-7390
▁지금요	-7391
▁지쳤어	-7392
▁지하철	-7393
▁지현씨	-7394
▁직장이	-7395
▁차리고	-7396
▁찾아갈	-7397
▁체육복	-7398
▁친하게	-7399
▁카드로	-7400
▁커피나	-7401
▁코끼리	-7402
▁퇴근을	-7403
▁판단해	-7404
▁피곤해	-7405
▁하겠다	-7406
▁하겠어	-7407
▁하는건	-7408
▁하더라	-7409
▁하시죠	-7410
▁하자고	-7411
▁학생회	-7412
▁학원도	-7413
▁한건데	-7414
▁한계가	-7415
▁할께요	-7416
▁할만큼	-7417
▁할테니	-7418
▁행동이	-7419
▁행사가	-7420
▁허구한	-7421
▁홍길동	-7422
▁화장도	-7423
▁회사로	-7424
▁회식은	-7425
버리겠어	-7426
시잖아요	-7427
실거에요	-7428
아닌가요	-7429
었어야지	-7430
으려니까	-7431
으신가요	-7432
중입니다	-7433
지마세요	-7434
해서라도	-7435
▁가져가지	-7436
▁가져오면	-7437
▁가져와서	-7438
▁가족까지	-7439
▁가족들은	-7440
▁가족만은	-7441
▁갚아야지	-7442
▁경찰서에	-7443
▁고객센터	-7444
▁구해올게	-7445
▁그냥줄래	-7446
▁그따구로	-7447
▁그랬는데	-7448
▁그러냐고	-7449
▁그러는거	-7450
▁그만좀해	-7451
▁기다려봐	-7452
▁냄새나는	-7453
▁다니라고	-7454
▁다음에는	-7455
▁답답하게	-7456
▁당연하죠	-7457
▁돌아다니	-7458
▁뒤룩뒤룩	-7459
▁드릴까요	-7460
▁들어야지	-7461
▁뚱뚱한게	-7462
▁뚱뚱해서	-7463
▁만들어와	-7464
▁만원으로	-7465
▁만원이야	-7466
▁많으니까	-7467
▁말같지도	-7468
▁말로할때	-7469
▁말씀드린	-7470
▁말이라고	-7471
▁말한건데	-7472
▁맞기전에	-7473
▁맞으시죠	-7474
▁매점에서	-7475
▁못하잖아	-7476
▁못헤어져	-7477
▁무슨일로	-7478
▁무시하고	-7479
▁미리미리	-7480
▁미친놈이	-7481
▁바로바로	-7482
▁받아들이	-7483
▁버릴거야	-7484
▁병원에서	-7485
▁보낼게요	-7486
▁부당한거	-7487
▁부모님께	-7488
▁부모한테	-7489
▁부탁인데	-7490
▁부탁한다	-7491
▁불편하다	-7492
▁사람들도	-7493
▁사랑해서	-7494
▁상관없어	-7495
▁선물받은	-7496
▁손님한테	-7497
▁손모가지	-7498
▁시작이네	-7499
▁시켰는데	-7500
▁신기해서	-7501
▁안나오면	-7502
▁안되는게	-7503
▁안들었어	-7504
▁안좋은데	-7505
▁안할거야	-7506
▁알아야지	-7507
▁얘기하고	-7508
▁어느정도	-7509
▁어려워서	-7510
▁없는건가	-7511
▁없어서야	-7512
▁연락하지	-7513
▁예민하게	-7514
▁오늘따라	-7515
▁옥상에서	-7516
▁우리누나	-7517
▁우리오빠	-7518
▁우리집에	-7519
▁이러는거	-7520
▁이번달에	-7521
▁이정도는	-7522
▁이쪽으로	-7523
▁일이라도	-7524
▁입이라고	-7525
▁있었으면	-7526
▁잘못되면	-7527
▁장난아니	-7528
▁장난하는	-7529
▁재수없어	-7530
▁전화해서	-7531
▁조심할게	-7532
▁좋습니다	-7533
▁좋았잖아	-7534
▁죄송하다	-7535
▁죽고싶나	-7536
▁죽어버려	-7537
▁죽여줄까	-7538
▁죽으라고	-7539
▁죽을거야	-7540
▁죽인다고	-7541
▁중입니다	-7542
▁증거있어	-7543
▁지나치신	-7544
▁지났는데	-7545
▁쪽팔려서	-7546
▁친구들은	-7547
▁컴플레인	-7548
▁퇴근시간	-7549
▁프리셉터	-7550
▁하나라도	-7551
▁하나밖에	-7552
▁하루이틀	-7553
▁하루종일	-7554
▁하십니까	-7555
▁했으니까	-7556
▁환장했어	-7557
는거아니야	-7558
▁가져가세요	-7559
▁과장님께서	-7560
▁그게아니라	-7561
▁그러니까요	-7562
▁그렇게까지	-7563
▁기분나쁘게	-7564
▁너무하신거	-7565
▁다니는거야	-7566
▁머라는거야	-7567
▁보고서라고	-7568
▁부모님께서	-7569
▁사람인데요	-7570
▁살려주십쇼	-7571
▁안가져오면	-7572
▁안빌려주면	-7573
▁않았습니까	-7574
▁어울린다고	-7575
▁여자친구가	-7576
▁이러는거야	-7577
▁이번주말에	-7578
▁입금하세요	-7579
▁점심시간에	-7580
▁죽여버리기	-7581
▁지랄하지마	-7582
하시는거에요	-7583
▁고치겠습니다	-7584
▁그런거아니야	-7585
▁그만해주세요	-7586
▁다른사람한테	-7587
▁무슨소리에요	-7588
▁여기있습니다	-7589
▁지나치십니다	-7590
▁죽여버릴거니까	-7591
▁죽여버릴테니까	-7592
▁겸	-7593
▁끈	-7594
▁냉	-7595
▁넥	-7596
▁떄	-7597
▁뚝	-7598
▁러	-7599
▁뱃	-7600
▁북	-7601
▁뺀	-7602
▁뽀	-7603
▁뽕	-7604
▁삥	-7605
▁셀	-7606
▁쉰	-7607
▁싱	-7608
▁쌀	-7609
▁쌓	-7610
▁쎄	-7611
▁쏠	-7612
▁쐬	-7613
▁앨	-7614
▁앱	-7615
▁엇	-7616
▁웬	-7617
▁젤	-7618
▁좌	-7619
▁캡	-7620
▁펴	-7621
▁혐	-7622
가를	-7623
가자	-7624
감을	-7625
값을	-7626
같네	-7627
검사	-7628
것만	-7629
괴롭	-7630
구가	-7631
구마	-7632
그램	-7633
기냐	-7634
내면	-7635
내에	-7636
너무	-7637
넣어	-7638
네다	-7639
뇨병	-7640
달아	-7641
대신	-7642
대회	-7643
도로	-7644
듯이	-7645
라해	-7646
란거	-7647
러먹	-7648
렀어	-7649
렇지	-7650
레리	-7651
려는	-7652
려봐	-7653
렸지	-7654
로는	-7655
롭게	-7656
류가	-7657
만드	-7658
많아	-7659
말만	-7660
먹는	-7661
먼저	-7662
무님	-7663
무시	-7664
문제	-7665
뮤니	-7666
미안	-7667
받을	-7668
방해	-7669
버거	-7670
병원	-7671
보냐	-7672
보로	-7673
봤지	-7674
부에	-7675
분증	-7676
불량	-7677
사야	-7678
살아	-7679
삼촌	-7680
샀어	-7681
상도	-7682
션이	-7683
셨네	-7684
시가	-7685
시켰	-7686
실때	-7687
싶냐	-7688
썼어	-7689
아래	-7690
아씨	-7691
앞에	-7692
어딨	-7693
어른	-7694
영이	-7695
우먼	-7696
우유	-7697
우지	-7698
울게	-7699
위가	-7700
위권	-7701
위치	-7702
을듯	-7703
을요	-7704
음이	-7705
이거	-7706
이로	-7707
이름	-7708
자로	-7709
자씨	-7710
잡고	-7711
정리	-7712
정말	-7713
정을	-7714
져요	-7715
조리	-7716
중요	-7717
지금	-7718
지로	-7719
지심	-7720
지요	-7721
진거	-7722
진아	-7723
짜고	-7724
차가	-7725
청에	-7726
추고	-7727
코인	-7728
타고	-7729
탱이	-7730
테면	-7731
트가	-7732
티에	-7733
피스	-7734
하셔	-7735
하여	-7736
학과	-7737
한대	-7738
한태	-7739
했을	-7740
휴가	-7741
히면	-7742
▁가나	-7743
▁가스	-7744
▁간호	-7745
▁개뿔	-7746
▁거니	-7747
▁거면	-7748
▁거참	-7749
▁검은	-7750
▁검토	-7751
▁고려	-7752
▁곳이	-7753
▁공연	-7754
▁공장	-7755
▁교도	-7756
▁교재	-7757
▁구분	-7758
▁구입	-7759
▁굴러	-7760
▁권한	-7761
▁귀가	-7762
▁귀머	-7763
▁그쵸	-7764
▁글씨	-7765
▁기업	-7766
▁기초	-7767
▁김마	-7768
▁김수	-7769
▁까먹	-7770
▁꼰대	-7771
▁끌어	-7772
▁나고	-7773
▁나불	-7774
▁날로	-7775
▁남았	-7776
▁남을	-7777
▁낳은	-7778
▁내딸	-7779
▁내비	-7780
▁내손	-7781
▁넘게	-7782
▁년은	-7783
▁노동	-7784
▁논문	-7785
▁놀면	-7786
▁누락	-7787
▁눈빛	-7788
▁눈썹	-7789
▁더러	-7790
▁도장	-7791
▁돈벌	-7792
▁동창	-7793
▁동태	-7794
▁뒤뚱	-7795
▁드는	-7796
▁들지	-7797
▁등교	-7798
▁떼워	-7799
▁뚱땡	-7800
▁라떼	-7801
▁리모	-7802
▁만지	-7803
▁말다	-7804
▁말들	-7805
▁말세	-7806
▁말안	-7807
▁맡기	-7808
▁매달	-7809
▁머냐	-7810
▁먼데	-7811
▁멀리	-7812
▁모레	-7813
▁못볼	-7814
▁뭣도	-7815
▁미영	-7816
▁바쁠	-7817
▁박살	-7818
▁반가	-7819
▁발설	-7820
▁밤새	-7821
▁밥값	-7822
▁밥은	-7823
▁방학	-7824
▁버릴	-7825
▁버텨	-7826
▁버틸	-7827
▁번째	-7828
▁벌금	-7829
▁벗겨	-7830
▁변경	-7831
▁보나	-7832
▁봤지	-7833
▁부드	-7834
▁부실	-7835
▁부정	-7836
▁분은	-7837
▁불량	-7838
▁불에	-7839
▁불참	-7840
▁비트	-7841
▁빠릿	-7842
▁빨간	-7843
▁뿌릴	-7844
▁사귄	-7845
▁사귈	-7846
▁사도	-7847
▁사올	-7848
▁삭발	-7849
▁살다	-7850
▁상의	-7851
▁새론	-7852
▁샤워	-7853
▁석탄	-7854
▁선생	-7855
▁셔츠	-7856
▁소방	-7857
▁속옷	-7858
▁손대	-7859
▁송금	-7860
▁수상	-7861
▁수원	-7862
▁술마	-7863
▁시력	-7864
▁시일	-7865
▁시체	-7866
▁실례	-7867
▁실적	-7868
▁심지	-7869
▁싶니	-7870
▁싸워	-7871
▁쌍수	-7872
▁써와	-7873
▁쓰래	-7874
▁쓰자	-7875
▁쓸데	-7876
▁아놔	-7877
▁아랫	-7878
▁아우	-7879
▁아작	-7880
▁아플	-7881
▁안계	-7882
▁안듣	-7883
▁안오	-7884
▁안한	-7885
▁알앗	-7886
▁앞뒤	-7887
▁애나	-7888
▁앵무	-7889
▁약국	-7890
▁어유	-7891
▁여길	-7892
▁연장	-7893
▁염산	-7894
▁옆집	-7895
▁오게	-7896
▁오기	-7897
▁오라	-7898
▁오신	-7899
▁오전	-7900
▁온다	-7901
▁올게	-7902
▁옷에	-7903
▁완벽	-7904
▁왜케	-7905
▁왜해	-7906
▁외상	-7907
▁운다	-7908
▁울보	-7909
▁원이	-7910
▁유미	-7911
▁유세	-7912
▁으윽	-7913
▁은혜	-7914
▁이씨	-7915
▁이웃	-7916
▁이체	-7917
▁일기	-7918
▁입닥	-7919
▁입술	-7920
▁입었	-7921
▁있긴	-7922
▁자빠	-7923
▁작아	-7924
▁잡은	-7925
▁장식	-7926
▁적금	-7927
▁전공	-7928
▁절뚝	-7929
▁제사	-7930
▁주게	-7931
▁줄여	-7932
▁줘바	-7933
▁증인	-7934
▁지도	-7935
▁지르	-7936
▁지장	-7937
▁지쳐	-7938
▁지쳤	-7939
▁지킬	-7940
▁진짠	-7941
▁징그	-7942
▁쫓아	-7943
▁찍을	-7944
▁찍혔	-7945
▁차례	-7946
▁차였	-7947
▁참을	-7948
▁창문	-7949
▁챙피	-7950
▁천국	-7951
▁천만	-7952
▁총각	-7953
▁최민	-7954
▁추천	-7955
▁치매	-7956
▁치사	-7957
▁캡쳐	-7958
▁커서	-7959
▁컸다	-7960
▁키가	-7961
▁토를	-7962
▁통금	-7963
▁투자	-7964
▁틀려	-7965
▁팀에	-7966
▁편지	-7967
▁폭파	-7968
▁프린	-7969
▁피드	-7970
▁학력	-7971
▁할것	-7972
▁할인	-7973
▁할줄	-7974
▁해볼	-7975
▁해줬	-7976
▁혈액	-7977
▁혐오	-7978
▁형아	-7979
▁호텔	-7980
▁환영	-7981
▁훔쳤	-7982
▁훔친	-7983
▁흐윽	-7984
▁흑인	-7985
가려고	-7986
가보네	-7987
간다고	-7988
거리지	-7989
교육을	-7990
까지만	-7991
냈는데	-7992
냐고요	-7993
는거라	-7994
는거죠	-7995
닙니다	-7996
던가요	-7997
돌아가	-7998
되잖아	-7999
될거야	-8000
들이지	-8001
라는거	-8002
라했지	-8003
랍니다	-8004
리잖아	-8005
맘대로	-8006
머스켓	-8007
버렸어	-8008
봤어요	-8009
부터가	-8010
셨다면	-8011
시면서	-8012
신거라	-8013
안하냐	-8014
야겠네	-8015
어야죠	-8016
었거든	-8017
에게는	-8018
영씨는	-8019
올거야	-8020
원에서	-8021
으라는	-8022
이는데	-8023
이랑은	-8024
이러스	-8025
이면서	-8026
인다고	-8027
일인데	-8028
자마자	-8029
져있어	-8030
주는게	-8031
주니까	-8032
중인데	-8033
지않냐	-8034
질이야	-8035
짓이야	-8036
팀장님	-8037
하기로	-8038
하나도	-8039
하더니	-8040
하라는	-8041
할건데	-8042
합시다	-8043
해야돼	-8044
해주라	-8045
했나요	-8046
했다며	-8047
했으니	-8048
▁가격이	-8049
▁가방도	-8050
▁가방을	-8051
▁가져왔	-8052
▁간호사	-8053
▁갔는데	-8054
▁같던데	-8055
▁같으니	-8056
▁갚아야	-8057
▁갚을께	-8058
▁개월째	-8059
▁거기다	-8060
▁거아냐	-8061
▁거지야	-8062
▁걸렸다	-8063
▁걸리면	-8064
▁것보다	-8065
▁결혼을	-8066
▁교무실	-8067
▁군생활	-8068
▁그거고	-8069
▁그랬나	-8070
▁그럴까	-8071
▁글러먹	-8072
▁글쎄요	-8073
▁기간이	-8074
▁기억도	-8075
▁기억해	-8076
▁꺼내봐	-8077
▁꼬우면	-8078
▁끝내면	-8079
▁나가게	-8080
▁나가요	-8081
▁나가자	-8082
▁나는거	-8083
▁나오냐	-8084
▁나잖아	-8085
▁난다고	-8086
▁내가왜	-8087
▁내놔요	-8088
▁내용을	-8089
▁너때문	-8090
▁너부터	-8091
▁너잖아	-8092
▁너지금	-8093
▁넘기면	-8094
▁년동안	-8095
▁놀리지	-8096
▁누구냐	-8097
▁누구는	-8098
▁느려터	-8099
▁늦어서	-8100
▁다닌다	-8101
▁다시해	-8102
▁다예요	-8103
▁다음은	-8104
▁달라면	-8105
▁담당자	-8106
▁당신네	-8107
▁대답을	-8108
▁대드는	-8109
▁대머리	-8110
▁대해서	-8111
▁도망가	-8112
▁돌아오	-8113
▁동생도	-8114
▁돼잖아	-8115
▁되겠지	-8116
▁드리고	-8117
▁드리는	-8118
▁따돌림	-8119
▁딱봐도	-8120
▁딸에게	-8121
▁때려요	-8122
▁때려쳐	-8123
▁떨어지	-8124
▁똑똑히	-8125
▁뜨겁게	-8126
▁마련해	-8127
▁마음만	-8128
▁막무가	-8129
▁만나기	-8130
▁만나러	-8131
▁만들고	-8132
▁만원도	-8133
▁만족해	-8134
▁말같지	-8135
▁말거야	-8136
▁말하게	-8137
▁말했다	-8138
▁맞다고	-8139
▁맞아서	-8140
▁먹은거	-8141
▁먹자고	-8142
▁멀쩡히	-8143
▁멈춰봐	-8144
▁멋있지	-8145
▁메일로	-8146
▁면목이	-8147
▁몇번째	-8148
▁몰아가	-8149
▁못들고	-8150
▁못움직	-8151
▁몽둥이	-8152
▁뭐가요	-8153
▁뭐든지	-8154
▁뭐하러	-8155
▁뭔데요	-8156
▁미주야	-8157
▁민지씨	-8158
▁민철씨	-8159
▁믿겠어	-8160
▁밀려서	-8161
▁바람을	-8162
▁바쁜거	-8163
▁박과장	-8164
▁박주임	-8165
▁반드시	-8166
▁받아요	-8167
▁벌레가	-8168
▁베트남	-8169
▁보려고	-8170
▁보면서	-8171
▁보미씨	-8172
▁부르지	-8173
▁부서에	-8174
▁부탁을	-8175
▁부탁이	-8176
▁부탁한	-8177
▁빌리는	-8178
▁빠져서	-8179
▁빽으로	-8180
▁사귀는	-8181
▁사는게	-8182
▁사는지	-8183
▁사먹어	-8184
▁사세요	-8185
▁사왔어	-8186
▁살게요	-8187
▁살려줄	-8188
▁살면서	-8189
▁살아요	-8190
▁살이야	-8191
▁살인자	-8192
▁살잖아	-8193
▁삼백충	-8194
▁상관없	-8195
▁상대방	-8196
▁새끼네	-8197
▁생각나	-8198
▁생각안	-8199
▁생각좀	-8200
▁생각하	-8201
▁생사람	-8202
▁서있어	-8203
▁선약이	-8204
▁선택해	-8205
▁소비자	-8206
▁손목에	-8207
▁손목을	-8208
▁손병신	-8209
▁수정해	-8210
▁순진한	-8211
▁술한잔	-8212
▁스컹크	-8213
▁시계는	-8214
▁시궁창	-8215
▁시켜서	-8216
▁시키고	-8217
▁신분증	-8218
▁실수를	-8219
▁심해서	-8220
▁쓰는데	-8221
▁아내를	-8222
▁아냐고	-8223
▁아닌것	-8224
▁아닐까	-8225
▁아들은	-8226
▁아무일	-8227
▁아시면	-8228
▁안그랬	-8229
▁안내고	-8230
▁안되고	-8231
▁안되나	-8232
▁안시켜	-8233
▁안지키	-8234
▁안하는	-8235
▁안해서	-8236
▁안해주	-8237
▁않았냐	-8238
▁알았냐	-8239
▁알았네	-8240
▁알지만	-8241
▁애한테	-8242
▁약속은	-8243
▁어떤가	-8244
▁어렵나	-8245
▁어림도	-8246
▁어이구	-8247
▁어쩌지	-8248
▁언론에	-8249
▁얼굴은	-8250
▁업무도	-8251
▁업무에	-8252
▁없거든	-8253
▁없나요	-8254
▁없다는	-8255
▁없으시	-8256
▁에어팟	-8257
▁여유가	-8258
▁여자들	-8259
▁연락을	-8260
▁열어봐	-8261
▁예민해	-8262
▁예쁜데	-8263
▁오전에	-8264
▁오후에	-8265
▁오히려	-8266
▁올려야	-8267
▁옷이야	-8268
▁와보게	-8269
▁외국인	-8270
▁욕하지	-8271
▁우리를	-8272
▁우리아	-8273
▁우수워	-8274
▁우습지	-8275
▁운동화	-8276
▁웃기게	-8277
▁원숭이	-8278
▁원피스	-8279
▁원하면	-8280
▁월급이	-8281
▁위에서	-8282
▁으이구	-8283
▁음식은	-8284
▁의도는	-8285
▁이거봐	-8286
▁이것만	-8287
▁이년아	-8288
▁이래도	-8289
▁이런게	-8290
▁이럴래	-8291
▁이만큼	-8292
▁이미지	-8293
▁이사람	-8294
▁이유로	-8295
▁이주임	-8296
▁이후로	-8297
▁인상이	-8298
▁일이고	-8299
▁일하기	-8300
▁입니까	-8301
▁있겠니	-8302
▁있다가	-8303
▁있어라	-8304
▁있었나	-8305
▁있을지	-8306
▁있지만	-8307
▁자격증	-8308
▁자기들	-8309
▁자료는	-8310
▁자리를	-8311
▁자신감	-8312
▁잘해봐	-8313
▁잘해야	-8314
▁장기는	-8315
▁저러고	-8316
▁저보다	-8317
▁저희집	-8318
▁전화가	-8319
▁전화해	-8320
▁절대로	-8321
▁젊은이	-8322
▁정과장	-8323
▁정보를	-8324
▁정신나	-8325
▁조부장	-8326
▁조심히	-8327
▁좋겠냐	-8328
▁주던가	-8329
▁주제를	-8330
▁죽는꼴	-8331
▁줬으면	-8332
▁증거가	-8333
▁지나갈	-8334
▁지친다	-8335
▁진지충	-8336
▁진짜요	-8337
▁쪽으로	-8338
▁쫓아갈	-8339
▁찌르고	-8340
▁찍었어	-8341
▁착하게	-8342
▁찾아와	-8343
▁책임자	-8344
▁책임져	-8345
▁책임지	-8346
▁책임질	-8347
▁처리해	-8348
▁축하해	-8349
▁치마를	-8350
▁친구냐	-8351
▁친구로	-8352
▁카드를	-8353
▁카페에	-8354
▁칼들고	-8355
▁커피에	-8356
▁커피좀	-8357
▁태어난	-8358
▁태어났	-8359
▁토나올	-8360
▁통하네	-8361
▁튀어나	-8362
▁틱장애	-8363
▁팀에서	-8364
▁피해가	-8365
▁필요는	-8366
▁하나쯤	-8367
▁하느라	-8368
▁하셔야	-8369
▁학생들	-8370
▁한달에	-8371
▁한두번	-8372
▁한번씩	-8373
▁해결해	-8374
▁해볼게	-8375
▁해야해	-8376
▁해주실	-8377
▁해주지	-8378
▁해줄수	-8379
▁해줘야	-8380
▁협박이	-8381
▁호구로	-8382
▁확인을	-8383
▁회의에	-8384
▁휴가야	-8385
▁휴거지	-8386
거아니야	-8387
것같아요	-8388
다면서요	-8389
상관이야	-8390
셔야해요	-8391
아가지고	-8392
없습니다	-8393
이라고요	-8394
이라서요	-8395
져가지고	-8396
하기전에	-8397
한겁니다	-8398
했잖아요	-8399
▁가는거야	-8400
▁가만있어	-8401
▁가볼게요	-8402
▁가져가서	-8403
▁갚을게요	-8404
▁개그우먼	-8405
▁개웃기네	-8406
▁거슬리게	-8407
▁거잖아요	-8408
▁걱정되서	-8409
▁건들기만	-8410
▁겁대가리	-8411
▁곤란한데	-8412
▁공부해서	-8413
▁괜찮겠어	-8414
▁괴롭히지	-8415
▁구해볼게	-8416
▁그랬어요	-8417
▁그러길래	-8418
▁그런소리	-8419
▁그럴게요	-8420
▁그렇게해	-8421
▁그렇겠지	-8422
▁그만이야	-8423
▁그지새끼	-8424
▁근무시간	-8425
▁기다려줘	-8426
▁김마리씨	-8427
▁김선생님	-8428
▁나가세요	-8429
▁나오는데	-8430
▁나오지마	-8431
▁나왔다고	-8432
▁나한테는	-8433
▁남았는데	-8434
▁남친이랑	-8435
▁내놓으면	-8436
▁내놓을래	-8437
▁너같은거	-8438
▁너무한다	-8439
▁노력하면	-8440
▁놀리는거	-8441
▁다녀오면	-8442
▁대가리가	-8443
▁도둑이야	-8444
▁도와드릴	-8445
▁돈이라도	-8446
▁돌려줘야	-8447
▁돼지라고	-8448
▁됐습니다	-8449
▁되는거죠	-8450
▁들어가는	-8451
▁들어오면	-8452
▁들어온거	-8453
▁들어왔어	-8454
▁만원이나	-8455
▁말대꾸를	-8456
▁말하니까	-8457
▁맞고싶냐	-8458
▁맞고줄래	-8459
▁매점가서	-8460
▁몇살이야	-8461
▁모르겠네	-8462
▁모르겠다	-8463
▁모른다고	-8464
▁모양인데	-8465
▁목소리도	-8466
▁못하는거	-8467
▁무릎꿇고	-8468
▁무서워라	-8469
▁무서워요	-8470
▁물어보고	-8471
▁뭐하자는	-8472
▁미안하게	-8473
▁미친새끼	-8474
▁바이러스	-8475
▁받았으면	-8476
▁받으라고	-8477
▁배고프다	-8478
▁보고서를	-8479
▁보고싶어	-8480
▁보내라고	-8481
▁봐주시면	-8482
▁봐줬더니	-8483
▁부장님도	-8484
▁비싼건데	-8485
▁비키라고	-8486
▁빌려주고	-8487
▁빠져나가	-8488
▁뿐입니다	-8489
▁사람인데	-8490
▁사람처럼	-8491
▁사실이야	-8492
▁사이좋게	-8493
▁샌드위치	-8494
▁생각했어	-8495
▁서운하게	-8496
▁선생님께	-8497
▁수정해서	-8498
▁시간인데	-8499
▁시어머니	-8500
▁싫다고요	-8501
▁싫습니다	-8502
▁심하세요	-8503
▁아니라는	-8504
▁아니면서	-8505
▁아드님이	-8506
▁아무말도	-8507
▁안다니고	-8508
▁안되잖아	-8509
▁안해주면	-8510
▁안했어요	-8511
▁않을거야	-8512
▁애플워치	-8513
▁얘기하자	-8514
▁어디부터	-8515
▁어딨는데	-8516
▁어떨까요	-8517
▁어리버리	-8518
▁어머어머	-8519
▁어울리지	-8520
▁어쩔거야	-8521
▁여기에서	-8522
▁오백만원	-8523
▁오토바이	-8524
▁오후까지	-8525
▁왜그러시	-8526
▁우리집은	-8527
▁우리학교	-8528
▁이대리는	-8529
▁이대리님	-8530
▁이런걸로	-8531
▁이럴수록	-8532
▁이리와바	-8533
▁이보세요	-8534
▁이유라도	-8535
▁이제서야	-8536
▁일이라고	-8537
▁일이잖아	-8538
▁일하는거	-8539
▁자격지심	-8540
▁장난같아	-8541
▁재수없게	-8542
▁재수없는	-8543
▁저번부터	-8544
▁저번에는	-8545
▁전부에요	-8546
▁정당하게	-8547
▁정리하고	-8548
▁제정신이	-8549
▁주말인데	-8550
▁주문하신	-8551
▁주민번호	-8552
▁주십시요	-8553
▁죽는다고	-8554
▁죽어야해	-8555
▁준다니까	-8556
▁쥐도새도	-8557
▁진정하게	-8558
▁집구석에	-8559
▁찌질하게	-8560
▁찐따새끼	-8561
▁책임지고	-8562
▁출근해서	-8563
▁취소할게	-8564
▁친구니까	-8565
▁친구라고	-8566
▁카페에서	-8567
▁필요해요	-8568
▁하겠다고	-8569
▁하셨는데	-8570
▁하십니다	-8571
▁하잖아요	-8572
▁하하하하	-8573
▁학교폭력	-8574
▁학원비야	-8575
▁한다니까	-8576
▁해보세요	-8577
▁해보자고	-8578
▁해주셔야	-8579
▁핸드폰은	-8580
▁행동으로	-8581
▁호주머니	-8582
▁홍당무는	-8583
▁힘듭니다	-8584
드렸잖아요	-8585
해야하는데	-8586
▁거짓말하지	-8587
▁고소할거야	-8588
▁그랬습니다	-8589
▁그랬어야지	-8590
▁그만두던가	-8591
▁나올때까지	-8592
▁냄새나니까	-8593
▁노력해볼게	-8594
▁되겠습니까	-8595
▁들었는데요	-8596
▁리뷰이벤트	-8597
▁막무가내로	-8598
▁말씀하세요	-8599
▁말았어야지	-8600
▁몰랐습니다	-8601
▁못생겼다고	-8602
▁못생겼으면	-8603
▁보고싶어서	-8604
▁부르셨어요	-8605
▁부모님이랑	-8606
▁불러주세요	-8607
▁비싸보인다	-8608
▁빠져가지고	-8609
▁생각하는데	-8610
▁생일이라고	-8611
▁선생님께서	-8612
▁심하십니다	-8613
▁쓰레기통에	-8614
▁안그럴게요	-8615
▁안되겠구만	-8616
▁안할테니까	-8617
▁알겠으니까	-8618
▁어딨습니까	-8619
▁어떡하라고	-8620
▁오랜만이네	-8621
▁오해입니다	-8622
▁왜그러시죠	-8623
▁이런식이면	-8624
▁이야기하자	-8625
▁일이신가요	-8626
▁장애인이면	-8627
▁좋겠습니다	-8628
▁좋아보이네	-8629
▁죄송하다면	-8630
▁죽여버리는	-8631
▁죽여버릴까	-8632
▁죽을때까지	-8633
▁죽이기라도	-8634
▁지금이라도	-8635
▁짜증나니까	-8636
▁필요하세요	-8637
▁해줄테니까	-8638
▁헤어졌는데	-8639
▁협박하는거	-8640
▁회사생활이	-8641
▁그러겠습니다	-8642
▁다녀왔습니다	-8643
▁도와드릴까요	-8644
▁신고할겁니다	-8645
▁왜이러는거야	-8646
▁무슨말씀이세요	-8647
▁무슨일이신가요	-8648
▁안그러겠습니다	-8649
▁처리하겠습니다	-8650
▁갇	-8651
▁긋	-8652
▁깊	-8653
▁껄	-8654
▁낄	-8655
▁닌	-8656
▁닿	-8657
▁덮	-8658
▁뒀	-8659
▁롤	-8660
▁를	-8661
▁맥	-8662
▁믹	-8663
▁벅	-8664
▁빛	-8665
▁뻗	-8666
▁슈	-8667
▁썸	-8668
▁썻	-8669
▁웩	-8670
▁쟨	-8671
▁젖	-8672
▁쭉	-8673
▁촌	-8674
▁케	-8675
▁콘	-8676
▁쿨	-8677
▁탑	-8678
▁톡	-8679
▁핵	-8680
▁헌	-8681
가며	-8682
가방	-8683
갈래	-8684
감도	-8685
갚아	-8686
겟네	-8687
겟어	-8688
고분	-8689
과도	-8690
그때	-8691
근무	-8692
긋지	-8693
긴거	-8694
까짓	-8695
꺼져	-8696
나기	-8697
난거	-8698
내심	-8699
넘기	-8700
네야	-8701
년도	-8702
년을	-8703
느니	-8704
다녔	-8705
다야	-8706
단지	-8707
대에	-8708
더러	-8709
델링	-8710
도그	-8711
도와	-8712
돈을	-8713
동을	-8714
된거	-8715
뒤에	-8716
드라	-8717
들면	-8718
등한	-8719
뜻이	-8720
래서	-8721
랜드	-8722
러서	-8723
려야	-8724
렸나	-8725
로워	-8726
료를	-8727
르장	-8728
리니	-8729
리로	-8730
린지	-8731
릴까	-8732
마트	-8733
맞기	-8734
맞아	-8735
면에	-8736
문회	-8737
뭔데	-8738
바꿔	-8739
바라	-8740
박에	-8741
반지	-8742
받는	-8743
발로	-8744
버릇	-8745
벨트	-8746
보러	-8747
보죠	-8748
부르	-8749
분들	-8750
비로	-8751
비싸	-8752
사냐	-8753
살이	-8754
상품	-8755
상황	-8756
색이	-8757
서는	-8758
서를	-8759
서에	-8760
서트	-8761
셔요	-8762
셨고	-8763
셨죠	-8764
속에	-8765
손님	-8766
쉬고	-8767
스팔	-8768
시니	-8769
시방	-8770
실로	-8771
실장	-8772
써서	-8773
쓴다	-8774
씨티	-8775
악이	-8776
않나	-8777
알려	-8778
았던	-8779
야될	-8780
어져	-8781
어죽	-8782
어진	-8783
언제	-8784
었을	-8785
연락	-8786
였네	-8787
영아	-8788
올라	-8789
왜요	-8790
우로	-8791
우리	-8792
움이	-8793
위를	-8794
위반	-8795
유회	-8796
을걸	-8797
음을	-8798
이따	-8799
자꾸	-8800
자도	-8801
자랑	-8802
잔데	-8803
잔치	-8804
잡아	-8805
장고	-8806
장은	-8807
재산	-8808
제도	-8809
제를	-8810
주냐	-8811
주의	-8812
증후	-8813
지경	-8814
차이	-8815
찾아	-8816
채로	-8817
쳤냐	-8818
추가	-8819
추행	-8820
취급	-8821
치를	-8822
칠게	-8823
코드	-8824
코야	-8825
통수	-8826
파티	-8827
팔을	-8828
포기	-8829
폭행	-8830
푸냐	-8831
품이	-8832
프로	-8833
할걸	-8834
했대	-8835
회에	-8836
▁가든	-8837
▁가입	-8838
▁간단	-8839
▁간병	-8840
▁간절	-8841
▁간지	-8842
▁갈길	-8843
▁갈라	-8844
▁감고	-8845
▁감독	-8846
▁감아	-8847
▁감염	-8848
▁강간	-8849
▁강도	-8850
▁강아	-8851
▁같나	-8852
▁개못	-8853
▁개발	-8854
▁거부	-8855
▁걸을	-8856
▁걸음	-8857
▁게시	-8858
▁겠다	-8859
▁겪어	-8860
▁고기	-8861
▁고분	-8862
▁고정	-8863
▁골로	-8864
▁공공	-8865
▁공과	-8866
▁공책	-8867
▁과잉	-8868
▁관두	-8869
▁관둬	-8870
▁교정	-8871
▁구두	-8872
▁국물	-8873
▁굶고	-8874
▁귀도	-8875
▁귀에	-8876
▁규정	-8877
▁급이	-8878
▁기념	-8879
▁기운	-8880
▁길을	-8881
▁김민	-8882
▁김철	-8883
▁까부	-8884
▁깎아	-8885
▁깔고	-8886
▁깝치	-8887
▁끓여	-8888
▁끼고	-8889
▁나냐	-8890
▁나의	-8891
▁나죽	-8892
▁낙태	-8893
▁날려	-8894
▁남길	-8895
▁납품	-8896
▁낮게	-8897
▁내게	-8898
▁내년	-8899
▁낸다	-8900
▁넥타	-8901
▁노는	-8902
▁노예	-8903
▁놀다	-8904
▁농구	-8905
▁놓아	-8906
▁놔요	-8907
▁놔줘	-8908
▁눈은	-8909
▁뉴스	-8910
▁늘어	-8911
▁니까	-8912
▁다를	-8913
▁다섯	-8914
▁다운	-8915
▁다이	-8916
▁닥치	-8917
▁단톡	-8918
▁달린	-8919
▁닮았	-8920
▁대는	-8921
▁대라	-8922
▁대만	-8923
▁댓글	-8924
▁더군	-8925
▁데가	-8926
▁돈많	-8927
▁돈빌	-8928
▁동업	-8929
▁됐죠	-8930
▁될것	-8931
▁두꺼	-8932
▁두들	-8933
▁듣자	-8934
▁들게	-8935
▁들면	-8936
▁들여	-8937
▁디자	-8938
▁딱딱	-8939
▁때린	-8940
▁때릴	-8941
▁떠는	-8942
▁뚫린	-8943
▁뜯어	-8944
▁만년	-8945
▁많다	-8946
▁말게	-8947
▁맘충	-8948
▁맞냐	-8949
▁맞선	-8950
▁맞은	-8951
▁먹었	-8952
▁먼지	-8953
▁면담	-8954
▁몇대	-8955
▁모으	-8956
▁목에	-8957
▁몰카	-8958
▁몸도	-8959
▁몸은	-8960
▁못갚	-8961
▁못마	-8962
▁무능	-8963
▁무료	-8964
▁미뤄	-8965
▁민재	-8966
▁믿냐	-8967
▁바야	-8968
▁바퀴	-8969
▁반복	-8970
▁반영	-8971
▁발급	-8972
▁발뺌	-8973
▁밝은	-8974
▁밝혀	-8975
▁밝히	-8976
▁밥맛	-8977
▁밥을	-8978
▁방향	-8979
▁배때	-8980
▁배에	-8981
▁배정	-8982
▁법이	-8983
▁베풀	-8984
▁별이	-8985
▁보신	-8986
▁보육	-8987
▁봐바	-8988
▁봤다	-8989
▁부리	-8990
▁부산	-8991
▁부숴	-8992
▁불을	-8993
▁비서	-8994
▁비용	-8995
▁비위	-8996
▁빌립	-8997
▁빠르	-8998
▁빠를	-8999
▁빡치	-9000
▁빨개	-9001
▁빨라	-9002
▁빼면	-9003
▁뻔히	-9004
▁뿐만	-9005
▁사가	-9006
▁사시	-9007
▁살찐	-9008
▁샀냐	-9009
▁생명	-9010
▁생선	-9011
▁샤인	-9012
▁서방	-9013
▁서있	-9014
▁성인	-9015
▁소식	-9016
▁소유	-9017
▁속아	-9018
▁손주	-9019
▁술만	-9020
▁쉬운	-9021
▁스카	-9022
▁스케	-9023
▁승급	-9024
▁승인	-9025
▁시도	-9026
▁시집	-9027
▁실행	-9028
▁실험	-9029
▁싸인	-9030
▁써도	-9031
▁써라	-9032
▁썩는	-9033
▁썩은	-9034
▁썰어	-9035
▁쏘리	-9036
▁쓰러	-9037
▁쓴거	-9038
▁아쉬	-9039
▁악플	-9040
▁안건	-9041
▁안마	-9042
▁안씻	-9043
▁안줘	-9044
▁알거	-9045
▁알빠	-9046
▁암호	-9047
▁앞을	-9048
▁야간	-9049
▁약자	-9050
▁약해	-9051
▁양이	-9052
▁어긋	-9053
▁억을	-9054
▁없군	-9055
▁없음	-9056
▁에스	-9057
▁에잇	-9058
▁여쭤	-9059
▁여태	-9060
▁연봉	-9061
▁오바	-9062
▁오프	-9063
▁오호	-9064
▁올래	-9065
▁올캐	-9066
▁와요	-9067
▁왔다	-9068
▁왜들	-9069
▁왤케	-9070
▁우동	-9071
▁우릴	-9072
▁울어	-9073
▁움찔	-9074
▁워낙	-9075
▁원칙	-9076
▁유부	-9077
▁유행	-9078
▁의지	-9079
▁이가	-9080
▁이겨	-9081
▁이득	-9082
▁이랬	-9083
▁이마	-9084
▁이성	-9085
▁이익	-9086
▁이정	-9087
▁이직	-9088
▁인권	-9089
▁인력	-9090
▁인상	-9091
▁인심	-9092
▁인재	-9093
▁일등	-9094
▁일반	-9095
▁일잘	-9096
▁입도	-9097
▁입상	-9098
▁자수	-9099
▁자체	-9100
▁자퇴	-9101
▁작정	-9102
▁잘릴	-9103
▁잘만	-9104
▁잘생	-9105
▁잡았	-9106
▁재고	-9107
▁재료	-9108
▁저걸	-9109
▁저금	-9110
▁적당	-9111
▁적도	-9112
▁전통	-9113
▁절단	-9114
▁절반	-9115
▁점이	-9116
▁접수	-9117
▁정수	-9118
▁제보	-9119
▁조상	-9120
▁존중	-9121
▁졸렬	-9122
▁좋죠	-9123
▁죽나	-9124
▁죽음	-9125
▁준거	-9126
▁중대	-9127
▁줬어	-9128
▁지냈	-9129
▁지를	-9130
▁지불	-9131
▁진입	-9132
▁짐승	-9133
▁집을	-9134
▁짝꿍	-9135
▁짧아	-9136
▁짱깨	-9137
▁차도	-9138
▁참다	-9139
▁창의	-9140
▁챙길	-9141
▁처벌	-9142
▁쳐서	-9143
▁초과	-9144
▁총알	-9145
▁최신	-9146
▁층간	-9147
▁칼퇴	-9148
▁커녕	-9149
▁컨디	-9150
▁컸네	-9151
▁크윽	-9152
▁키도	-9153
▁키로	-9154
▁타이	-9155
▁터트	-9156
▁텅텅	-9157
▁튀면	-9158
▁팔면	-9159
▁팔이	-9160
▁폰을	-9161
▁푼도	-9162
▁하느	-9163
▁하래	-9164
▁하핳	-9165
▁학과	-9166
▁한푼	-9167
▁해본	-9168
▁허가	-9169
▁허리	-9170
▁허위	-9171
▁헬멧	-9172
▁혀를	-9173
▁형편	-9174
▁호호	-9175
▁호흡	-9176
▁혼날	-9177
▁화해	-9178
▁흐흐	-9179
▁희생	-9180
가봐요	-9181
간호사	-9182
거니깐	-9183
것처럼	-9184
겠냐고	-9185
겠는가	-9186
겠다면	-9187
고싶은	-9188
과장이	-9189
긋지긋	-9190
꺼예요	-9191
났다고	-9192
놓은거	-9193
놨더니	-9194
다는게	-9195
대학교	-9196
되나요	-9197
드리지	-9198
똑바로	-9199
라면서	-9200
물함에	-9201
버려서	-9202
베이터	-9203
볼거야	-9204
볼테니	-9205
봤다고	-9206
부장님	-9207
뿐이야	-9208
시던데	-9209
신데요	-9210
실에서	-9211
심부름	-9212
아저씨	-9213
안하네	-9214
어서요	-9215
업무를	-9216
오는데	-9217
오던지	-9218
오면서	-9219
온다고	-9220
웠어요	-9221
으시고	-9222
은건데	-9223
이거든	-9224
이렇게	-9225
인거냐	-9226
인줄알	-9227
일이야	-9228
있어야	-9229
졌는데	-9230
졌어요	-9231
줄래요	-9232
줄알고	-9233
증후군	-9234
짜고짜	-9235
쳤는데	-9236
하기는	-9237
하나만	-9238
하자고	-9239
하지말	-9240
하지않	-9241
한가요	-9242
한거니	-9243
한거지	-9244
해보여	-9245
했는지	-9246
했더니	-9247
▁가기로	-9248
▁가난한	-9249
▁가던길	-9250
▁가도록	-9251
▁가야해	-9252
▁가지러	-9253
▁가지마	-9254
▁감당할	-9255
▁감옥에	-9256
▁갑니다	-9257
▁갔잖아	-9258
▁개만도	-9259
▁개웃겨	-9260
▁걸려서	-9261
▁걸지마	-9262
▁것까지	-9263
▁결혼도	-9264
▁결혼한	-9265
▁계셔서	-9266
▁계시는	-9267
▁계신데	-9268
▁고치면	-9269
▁고통을	-9270
▁고픈데	-9271
▁공부해	-9272
▁괴롭혔	-9273
▁국어쌤	-9274
▁군대도	-9275
▁귀여운	-9276
▁그니깐	-9277
▁그딴거	-9278
▁그만한	-9279
▁그새끼	-9280
▁금액을	-9281
▁기대해	-9282
▁기분을	-9283
▁기사로	-9284
▁기한을	-9285
▁길바닥	-9286
▁김길동	-9287
▁김부장	-9288
▁김팀장	-9289
▁까불고	-9290
▁꼬라봐	-9291
▁꼬리쳤	-9292
▁꾸미고	-9293
▁꾸지마	-9294
▁끝내서	-9295
▁끝내야	-9296
▁나가야	-9297
▁나간다	-9298
▁나왔지	-9299
▁나이도	-9300
▁날아가	-9301
▁남겨와	-9302
▁남자는	-9303
▁남자도	-9304
▁남자들	-9305
▁남자에	-9306
▁낳아서	-9307
▁내놓을	-9308
▁내려와	-9309
▁내보내	-9310
▁내손에	-9311
▁냉장고	-9312
▁너네들	-9313
▁넘어갈	-9314
▁노대리	-9315
▁놀자고	-9316
▁놓으면	-9317
▁누군가	-9318
▁누군줄	-9319
▁느낌이	-9320
▁니까짓	-9321
▁니네가	-9322
▁니동생	-9323
▁다꺼내	-9324
▁다니네	-9325
▁다니니	-9326
▁다음번	-9327
▁다치기	-9328
▁다했냐	-9329
▁단단히	-9330
▁달라질	-9331
▁닮아서	-9332
▁담당이	-9333
▁답답한	-9334
▁당뇨병	-9335
▁당신을	-9336
▁당해서	-9337
▁대리가	-9338
▁대학도	-9339
▁대학생	-9340
▁더럽네	-9341
▁도둑놈	-9342
▁도둑질	-9343
▁도와줬	-9344
▁돈없는	-9345
▁돈이랑	-9346
▁돌아갈	-9347
▁동문회	-9348
▁됐고요	-9349
▁뒤졌다	-9350
▁드럽게	-9351
▁들어갔	-9352
▁들어올	-9353
▁때려봐	-9354
▁마시는	-9355
▁만나지	-9356
▁만났지	-9357
▁만약에	-9358
▁만큼은	-9359
▁많으면	-9360
▁말고도	-9361
▁말이돼	-9362
▁말인지	-9363
▁망치로	-9364
▁먹는게	-9365
▁먹어도	-9366
▁먹어봐	-9367
▁먹을까	-9368
▁멍청아	-9369
▁모양이	-9370
▁모자랄	-9371
▁몰랐네	-9372
▁못가게	-9373
▁못들은	-9374
▁못받아	-9375
▁못쓰게	-9376
▁못참아	-9377
▁못한거	-9378
▁무섭다	-9379
▁뭐하고	-9380
▁미루고	-9381
▁미안할	-9382
▁미쳤니	-9383
▁민규씨	-9384
▁민서씨	-9385
▁민선씨	-9386
▁민희씨	-9387
▁바꾸자	-9388
▁바꿔서	-9389
▁바나나	-9390
▁바람핀	-9391
▁바쁜척	-9392
▁반에서	-9393
▁받아와	-9394
▁밥먹을	-9395
▁방법을	-9396
▁버러지	-9397
▁버르장	-9398
▁법대로	-9399
▁보내는	-9400
▁보내주	-9401
▁보는게	-9402
▁보여주	-9403
▁보이스	-9404
▁보인다	-9405
▁보잖아	-9406
▁복장이	-9407
▁뵈는게	-9408
▁부분은	-9409
▁분들은	-9410
▁분안에	-9411
▁분이면	-9412
▁불구로	-9413
▁불쾌해	-9414
▁불편을	-9415
▁불편한	-9416
▁붙어서	-9417
▁비싼거	-9418
▁빌려갔	-9419
▁빌려달	-9420
▁빌리고	-9421
▁빌릴게	-9422
▁빠르게	-9423
▁빠르고	-9424
▁빠지고	-9425
▁빡치게	-9426
▁뿌린다	-9427
▁사건에	-9428
▁사귀어	-9429
▁사는거	-9430
▁사다줘	-9431
▁사려고	-9432
▁사소한	-9433
▁사야지	-9434
▁사이가	-9435
▁사이트	-9436
▁사진도	-9437
▁사진찍	-9438
▁산다며	-9439
▁살아갈	-9440
▁살아도	-9441
▁살아라	-9442
▁삼만원	-9443
▁샀어요	-9444
▁상품권	-9445
▁새벽에	-9446
▁생각한	-9447
▁생일이	-9448
▁서희야	-9449
▁선호야	-9450
▁설거지	-9451
▁소리내	-9452
▁소리로	-9453
▁소리지	-9454
▁소방관	-9455
▁손해가	-9456
▁수술비	-9457
▁수진씨	-9458
▁승진은	-9459
▁시키지	-9460
▁시킨거	-9461
▁신경꺼	-9462
▁신고는	-9463
▁신고를	-9464
▁신발도	-9465
▁신장이	-9466
▁실력이	-9467
▁싫어해	-9468
▁싶다는	-9469
▁싶은가	-9470
▁쓰는건	-9471
▁씨씨티	-9472
▁아가야	-9473
▁아까운	-9474
▁아는거	-9475
▁아니든	-9476
▁아니래	-9477
▁아닐세	-9478
▁아들아	-9479
▁아빠도	-9480
▁아스팔	-9481
▁아시니	-9482
▁아시지	-9483
▁아이구	-9484
▁아프게	-9485
▁아프시	-9486
▁안갔다	-9487
▁안나와	-9488
▁안내려	-9489
▁안돼죠	-9490
▁안되긴	-9491
▁안되냐	-9492
▁안둔다	-9493
▁안들고	-9494
▁안들려	-9495
▁안받고	-9496
▁안인턴	-9497
▁안좋게	-9498
▁안주고	-9499
▁안할게	-9500
▁안해봤	-9501
▁안해줘	-9502
▁안했냐	-9503
▁않나요	-9504
▁않는데	-9505
▁않은가	-9506
▁알려줄	-9507
▁알바를	-9508
▁알바비	-9509
▁알바야	-9510
▁알아내	-9511
▁알아보	-9512
▁알앗어	-9513
▁알았다	-9514
▁알지도	-9515
▁알텐데	-9516
▁애미애	-9517
▁애비가	-9518
▁애새끼	-9519
▁앵무새	-9520
▁야유회	-9521
▁양심도	-9522
▁어디를	-9523
▁어려서	-9524
▁어린게	-9525
▁업무로	-9526
▁없는지	-9527
▁없지만	-9528
▁엉덩이	-9529
▁엎드려	-9530
▁여드름	-9531
▁여자는	-9532
▁열어서	-9533
▁예쁘네	-9534
▁예진이	-9535
▁오니까	-9536
▁오케이	-9537
▁온거야	-9538
▁올게요	-9539
▁올라온	-9540
▁올려놓	-9541
▁올리고	-9542
▁올리는	-9543
▁와야지	-9544
▁왔다고	-9545
▁왔으면	-9546
▁왕인거	-9547
▁외삼촌	-9548
▁용돈도	-9549
▁우리애	-9550
▁우리의	-9551
▁우연히	-9552
▁운동도	-9553
▁웃기지	-9554
▁워크샵	-9555
▁원해서	-9556
▁월세도	-9557
▁위치추	-9558
▁유출되	-9559
▁은지야	-9560
▁이거놔	-9561
▁이거랑	-9562
▁이년이	-9563
▁이래요	-9564
▁이른다	-9565
▁이름도	-9566
▁이리내	-9567
▁이리줘	-9568
▁이모양	-9569
▁이쁘지	-9570
▁이유를	-9571
▁이자리	-9572
▁이해해	-9573
▁인내심	-9574
▁인생을	-9575
▁인질로	-9576
▁일루와	-9577
▁일인가	-9578
▁일하면	-9579
▁일해서	-9580
▁임신이	-9581
▁임주임	-9582
▁입사한	-9583
▁입원해	-9584
▁있는돈	-9585
▁있다면	-9586
▁있었던	-9587
▁자식은	-9588
▁자존심	-9589
▁잘들어	-9590
▁잘라서	-9591
▁잘못들	-9592
▁잘생겼	-9593
▁잘지내	-9594
▁잘했어	-9595
▁잡아먹	-9596
▁잡아봐	-9597
▁잡아서	-9598
▁장기를	-9599
▁장소로	-9600
▁장애가	-9601
▁재미도	-9602
▁재미로	-9603
▁재밌는	-9604
▁재밌지	-9605
▁저기로	-9606
▁저기서	-9607
▁저번엔	-9608
▁저번주	-9609
▁저사람	-9610
▁저세상	-9611
▁저승길	-9612
▁전달을	-9613
▁전부야	-9614
▁전에는	-9615
▁전재산	-9616
▁전화를	-9617
▁정도만	-9618
▁좀전에	-9619
▁좋다는	-9620
▁좋자고	-9621
▁주는게	-9622
▁주말엔	-9623
▁죽어봐	-9624
▁죽여버	-9625
▁준비나	-9626
▁준비도	-9627
▁준비를	-9628
▁줄테니	-9629
▁중위권	-9630
▁중인데	-9631
▁중학교	-9632
▁줘야해	-9633
▁즐기는	-9634
▁증거는	-9635
▁지금이	-9636
▁지나면	-9637
▁지났어	-9638
▁지능이	-9639
▁지울게	-9640
▁지키면	-9641
▁집에는	-9642
▁집에만	-9643
▁찬호야	-9644
▁처리를	-9645
▁천원만	-9646
▁쳤으면	-9647
▁최소한	-9648
▁치마가	-9649
▁치지마	-9650
▁친구를	-9651
▁친구요	-9652
▁친한척	-9653
▁카드값	-9654
▁카드는	-9655
▁카페는	-9656
▁커뮤니	-9657
▁커피마	-9658
▁콘서트	-9659
▁태어날	-9660
▁통하는	-9661
▁퇴근해	-9662
▁편하고	-9663
▁폰으로	-9664
▁폼으로	-9665
▁프린터	-9666
▁피시방	-9667
▁피하는	-9668
▁피해주	-9669
▁필요가	-9670
▁하겠지	-9671
▁하나를	-9672
▁하나야	-9673
▁하나에	-9674
▁하더니	-9675
▁하시네	-9676
▁하지도	-9677
▁학력이	-9678
▁한다면	-9679
▁한달만	-9680
▁한율이	-9681
▁할꺼야	-9682
▁할수있	-9683
▁함부러	-9684
▁해서는	-9685
▁해주고	-9686
▁했는지	-9687
▁했다는	-9688
▁했으니	-9689
▁허튼짓	-9690
▁현금이	-9691
▁혈액형	-9692
▁협박을	-9693
▁혹시나	-9694
▁환자가	-9695
▁회사의	-9696
▁회의가	-9697
▁후회할	-9698
▁훔쳐서	-9699
▁힘들지	-9700
같습니다	-9701
거잖아요	-9702
겠다고요	-9703
겠으니까	-9704
고다니냐	-9705
돈이에요	-9706
라니까요	-9707
말이에요	-9708
받으면서	-9709
뿐이에요	-9710
스러워서	-9711
시겠어요	-9712
애들이랑	-9713
왔는데요	-9714
이라는데	-9715
이십니다	-9716
있는데요	-9717
하는건가	-9718
하다니까	-9719
하시나요	-9720
하십시오	-9721
한건데요	-9722
할거에요	-9723
해달라고	-9724
해보라고	-9725
했나봐요	-9726
했다니까	-9727
▁가만안둘	-9728
▁가야해요	-9729
▁가족끼리	-9730
▁가족한테	-9731
▁갈테니까	-9732
▁갚았잖아	-9733
▁개빡치게	-9734
▁개새끼가	-9735
▁개인사정	-9736
▁걸어가면	-9737
▁결혼하면	-9738
▁경찰부를	-9739
▁계산하고	-9740
▁고객님의	-9741
▁고등학생	-9742
▁고분고분	-9743
▁곤란해요	-9744
▁괜찮다고	-9745
▁괴롭히면	-9746
▁귀머거리	-9747
▁그거라도	-9748
▁그래봤자	-9749
▁그랬다고	-9750
▁그랬다는	-9751
▁그러던데	-9752
▁그러려고	-9753
▁그런말이	-9754
▁그을거야	-9755
▁그지같이	-9756
▁급하다고	-9757
▁기다리게	-9758
▁기대할게	-9759
▁기억안나	-9760
▁김대리도	-9761
▁김사원은	-9762
▁김사장님	-9763
▁깨끗하게	-9764
▁나름대로	-9765
▁나쁜사람	-9766
▁나오시면	-9767
▁나오지를	-9768
▁나온다면	-9769
▁나왔어요	-9770
▁나이먹고	-9771
▁남자한테	-9772
▁납치해서	-9773
▁냄새나서	-9774
▁냄새난다	-9775
▁너같으면	-9776
▁너네집에	-9777
▁너네한테	-9778
▁놔주세요	-9779
▁누가그래	-9780
▁눈앞에서	-9781
▁다녔다며	-9782
▁다닌다고	-9783
▁다닌다며	-9784
▁다른남자	-9785
▁다음에도	-9786
▁다짜고짜	-9787
▁당신한테	-9788
▁당연한거	-9789
▁대단하다	-9790
▁더군다나	-9791
▁도와주라	-9792
▁동생보다	-9793
▁동생이랑	-9794
▁동생한테	-9795
▁되시나요	-9796
▁들고다녀	-9797
▁따뜻한거	-9798
▁똑같은거	-9799
▁리모델링	-9800
▁마십시오	-9801
▁만만하지	-9802
▁만원밖에	-9803
▁만원이면	-9804
▁말씀드리	-9805
▁말씀드릴	-9806
▁말이라도	-9807
▁말하는게	-9808
▁맞고싶어	-9809
▁맞았다고	-9810
▁모르는게	-9811
▁못들었어	-9812
▁못봤어요	-9813
▁못하는데	-9814
▁못한다고	-9815
▁무서우면	-9816
▁물어보면	-9817
▁뭐하세요	-9818
▁미안미안	-9819
▁바빠서요	-9820
▁박사원이	-9821
▁받은거야	-9822
▁받은건데	-9823
▁배고픈데	-9824
▁버스에서	-9825
▁벗으라고	-9826
▁병신같은	-9827
▁병원비가	-9828
▁보고서가	-9829
▁보내드릴	-9830
▁보내세요	-9831
▁보내야지	-9832
▁보내주는	-9833
▁보여줘봐	-9834
▁봤습니다	-9835
▁부담스럽	-9836
▁부서에서	-9837
▁불렀는데	-9838
▁불려가서	-9839
▁불법이야	-9840
▁불쌍해라	-9841
▁비트코인	-9842
▁빌려가고	-9843
▁빌려줘요	-9844
▁빌립시다	-9845
▁빵좀사와	-9846
▁사라져라	-9847
▁사람에게	-9848
▁사소한거	-9849
▁사실대로	-9850
▁사주라고	-9851
▁사준건데	-9852
▁사줬잖아	-9853
▁상황에서	-9854
▁생각하냐	-9855
▁생각해보	-9856
▁소리하고	-9857
▁소문났어	-9858
▁소문내고	-9859
▁솔직하게	-9860
▁수학여행	-9861
▁승진하기	-9862
▁시간이나	-9863
▁시키는데	-9864
▁신어보자	-9865
▁신용불량	-9866
▁싫어하는	-9867
▁싫은데요	-9868
▁싶으니까	-9869
▁써주세요	-9870
▁아니라서	-9871
▁아니었어	-9872
▁아들이랑	-9873
▁아빠한테	-9874
▁아셨어요	-9875
▁아프다고	-9876
▁안됐는데	-9877
▁안되는거	-9878
▁안들어서	-9879
▁안들으면	-9880
▁안보내면	-9881
▁안시키고	-9882
▁안좋아해	-9883
▁알고있어	-9884
▁알려주실	-9885
▁알려줘야	-9886
▁알았으면	-9887
▁얘기했다	-9888
▁어디보자	-9889
▁어딨는지	-9890
▁어떡하지	-9891
▁어떡할래	-9892
▁어쩔껀데	-9893
▁억울하면	-9894
▁억울해요	-9895
▁언제부터	-9896
▁얼마있어	-9897
▁없어지는	-9898
▁없어지면	-9899
▁없었어요	-9900
▁여기있어	-9901
▁여기저기	-9902
▁여자한테	-9903
▁예쁘더라	-9904
▁옥상으로	-9905
▁왔는데요	-9906
▁왜그러나	-9907
▁우리아이	-9908
▁우리회사	-9909
▁월요일날	-9910
▁윗분들이	-9911
▁으아아악	-9912
▁이거라도	-9913
▁이거봐라	-9914
▁이러는지	-9915
▁이러다가	-9916
▁이럴거야	-9917
▁이를거야	-9918
▁이상하고	-9919
▁이상하다	-9920
▁일끝나고	-9921
▁일하는게	-9922
▁있거든요	-9923
▁있는거고	-9924
▁있는거지	-9925
▁있었어요	-9926
▁잘못했다	-9927
▁잠깐만요	-9928
▁장난이지	-9929
▁장난치는	-9930
▁저러니까	-9931
▁저번달에	-9932
▁저번처럼	-9933
▁저희끼리	-9934
▁주는거야	-9935
▁주말에도	-9936
▁지긋지긋	-9937
▁지랄하네	-9938
▁지워줄게	-9939
▁진지하게	-9940
▁짜증나서	-9941
▁찐따처럼	-9942
▁책상위에	-9943
▁처리하고	-9944
▁초등학생	-9945
▁출산휴가	-9946
▁카톡으로	-9947
▁커피타는	-9948
▁커피한잔	-9949
▁컨디션이	-9950
▁평소에도	-9951
▁피곤하게	-9952
▁피곤해서	-9953
▁필요하면	-9954
▁필요하지	-9955
▁하고다녀	-9956
▁하나부터	-9957
▁하는거고	-9958
▁한마디만	-9959
▁할것이지	-9960
▁해보라고	-9961
▁해오라고	-9962
▁해주시면	-9963
▁해준다고	-9964
▁해줄게요	-9965
▁해줬더니	-9966
▁했으면서	-9967
▁행복하게	-9968
▁헤어졌어	-9969
▁협박하시	-9970
▁환불처리	-9971
겠다는거야	-9972
말아주세요	-9973
버려야겠어	-9974
주시겠어요	-9975
▁가능할까요	-9976
▁거지새끼야	-9977
▁것만으로도	-9978
▁교장선생님	-9979
▁구해올게요	-9980
▁그러고보니	-9981
▁그러는거지	-9982
▁그러는건데	-9983
▁기다리세요	-9984
▁남자새끼가	-9985
▁대답안하냐	-9986
▁돌려준다고	-9987
▁드릴테니까	-9988
▁마지막이다	-9989
▁만들어줄까	-9990
▁말대꾸까지	-9991
▁말대꾸하네	-9992
▁맞으신가요	-9993
▁모르겠네요	-9994
▁몸으로라도	-9995
▁못알아들어	-9996
▁못알아먹네	-9997
▁못하겠으면	-9998
▁바보아니야	-9999
▁배고프니까	-10000
▁보내주시면	-10001
▁봐주십시오	-10002
▁부끄럽지도	-10003
▁부당합니다	-10004
▁불편합니다	-10005
▁사과하세요	-10006
▁선물받은거	-10007
▁시키는거야	-10008
▁아끼는거야	-10009
▁아니었어요	-10010
▁아무한테도	-10011
▁안되는거야	-10012
▁어떡합니까	-10013
▁어려우세요	-10014
▁어서오세요	-10015
▁여기있어요	-10016
▁오해십니다	-10017
▁우리사이에	-10018
▁움직이지마	-10019
▁이기적이네	-10020
▁이래가지고	-10021
▁일이십니까	-10022
▁있으십니까	-10023
▁있을테니까	-10024
▁장난하는거	-10025
▁장애인이냐	-10026
▁정신차릴래	-10027
▁조심할께요	-10028
▁프로젝트에	-10029
▁필요하다고	-10030
▁해주셔야죠	-10031
▁헤어졌잖아	-10032
▁회사에서는	-10033
하는거아니야	-10034
▁가보겠습니다	-10035
▁거짓말하지마	-10036
▁뛰어내릴거야	-10037
▁빌려달라는데	-10038
▁아니라니까요	-10039
▁아니었습니다	-10040
▁좋은말로할때	-10041
▁죽여버리겠어	-10042
해드리겠습니다	-10043
▁구해오겠습니다	-10044
▁보자보자하니까	-10045
▁잘모르겠습니다	-10046
▁잘못들었습니다	-10047
▁제출하겠습니다	-10048
▁찾아보겠습니다	-10049
▁헛소리하지말고	-10050
▁확인하겠습니다	-10051
▁힘들거같습니다	-10052
▁도와드리겠습니다	-10053
▁환불해드리겠습니다	-10054
▁깁	-10055
▁깽	-10056
▁꼽	-10057
▁끔	-10058
▁낡	-10059
▁닭	-10060
▁닳	-10061
▁댄	-10062
▁댔	-10063
▁뒈	-10064
▁떳	-10065
▁똘	-10066
▁뜸	-10067
▁띨	-10068
▁맙	-10069
▁맹	-10070
▁및	-10071
▁붕	-10072
▁뺄	-10073
▁뻘	-10074
▁샵	-10075
▁싯	-10076
▁쌔	-10077
▁썅	-10078
▁쑥	-10079
▁엊	-10080
▁엮	-10081
▁옙	-10082
▁왁	-10083
▁잼	-10084
▁족	-10085
▁줍	-10086
▁짠	-10087
▁짭	-10088
▁쯔	-10089
▁쯤	-10090
▁켁	-10091
▁퀄	-10092
▁킬	-10093
▁탁	-10094
▁탄	-10095
▁팥	-10096
▁펑	-10097
▁폈	-10098
▁품	-10099
▁핀	-10100
▁흙	-10101
▁흰	-10102
갈기	-10103
갈때	-10104
감고	-10105
같나	-10106
같냐	-10107
개야	-10108
거기	-10109
거는	-10110
거죠	-10111
경씨	-10112
계정	-10113
고객	-10114
고사	-10115
과의	-10116
구역	-10117
그제	-10118
길로	-10119
길이	-10120
김에	-10121
까고	-10122
꼬리	-10123
꾸로	-10124
나게	-10125
나온	-10126
날게	-10127
남친	-10128
내게	-10129
내미	-10130
내야	-10131
내요	-10132
녜요	-10133
놓은	-10134
놔라	-10135
놔서	-10136
니요	-10137
님께	-10138
님은	-10139
다닌	-10140
다른	-10141
당할	-10142
대네	-10143
더욱	-10144
덩어	-10145
도덕	-10146
동료	-10147
됐다	-10148
되었	-10149
되요	-10150
두지	-10151
뒀어	-10152
드렛	-10153
드립	-10154
들과	-10155
등록	-10156
디귿	-10157
떻게	-10158
띵가	-10159
라우	-10160
라인	-10161
란게	-10162
럼아	-10163
려구	-10164
리티	-10165
리퍼	-10166
마귀	-10167
막이	-10168
막힌	-10169
망구	-10170
먹게	-10171
못차	-10172
무원	-10173
문대	-10174
문서	-10175
민들	-10176
바위	-10177
박산	-10178
박스	-10179
받았	-10180
받지	-10181
발병	-10182
방법	-10183
방향	-10184
버시	-10185
법을	-10186
법이	-10187
볍게	-10188
보낸	-10189
보낼	-10190
보도	-10191
보호	-10192
봐줘	-10193
부들	-10194
부를	-10195
부림	-10196
부분	-10197
부서	-10198
분간	-10199
분해	-10200
불편	-10201
비도	-10202
빠릿	-10203
빼면	-10204
사게	-10205
사용	-10206
산다	-10207
살려	-10208
상사	-10209
상을	-10210
새가	-10211
샘이	-10212
서도	-10213
선배	-10214
선이	-10215
설을	-10216
센트	-10217
셔틀	-10218
소는	-10219
소음	-10220
수구	-10221
수업	-10222
스름	-10223
스터	-10224
스템	-10225
시오	-10226
식구	-10227
식은	-10228
실에	-10229
썼다	-10230
쓰네	-10231
쓰는	-10232
아악	-10233
애랑	-10234
약자	-10235
어디	-10236
어라	-10237
얼마	-10238
없냐	-10239
없니	-10240
여기	-10241
연이	-10242
오게	-10243
올래	-10244
올수	-10245
완료	-10246
왔다	-10247
용아	-10248
울래	-10249
웃음	-10250
윤씨	-10251
으라	-10252
은씨	-10253
을께	-10254
의를	-10255
의원	-10256
이스	-10257
이시	-10258
이에	-10259
인생	-10260
일병	-10261
자야	-10262
장만	-10263
장인	-10264
저리	-10265
적을	-10266
절뚝	-10267
점수	-10268
정아	-10269
제가	-10270
제는	-10271
제출	-10272
조사	-10273
좋지	-10274
주기	-10275
주나	-10276
주소	-10277
주신	-10278
줬다	-10279
지기	-10280
지리	-10281
지씨	-10282
지자	-10283
진데	-10284
질도	-10285
질렀	-10286
질않	-10287
집을	-10288
차는	-10289
차도	-10290
차를	-10291
체국	-10292
체중	-10293
쳐다	-10294
출이	-10295
치나	-10296
치자	-10297
카페	-10298
타령	-10299
타면	-10300
태로	-10301
테고	-10302
텐가	-10303
토피	-10304
팡이	-10305
프고	-10306
프레	-10307
프트	-10308
플로	-10309
피티	-10310
핑계	-10311
하루	-10312
하에	-10313
함을	-10314
헌날	-10315
혀야	-10316
혀요	-10317
혀있	-10318
형사	-10319
혼자	-10320
화가	-10321
후에	-10322
▁가로	-10323
▁가망	-10324
▁가보	-10325
▁가씨	-10326
▁가위	-10327
▁가졌	-10328
▁가줄	-10329
▁가품	-10330
▁가해	-10331
▁각자	-10332
▁간수	-10333
▁갈기	-10334
▁감봉	-10335
▁감자	-10336
▁값은	-10337
▁강요	-10338
▁강의	-10339
▁같니	-10340
▁갚고	-10341
▁갚은	-10342
▁개구	-10343
▁거길	-10344
▁거란	-10345
▁거랑	-10346
▁거에	-10347
▁건지	-10348
▁걷게	-10349
▁걷냐	-10350
▁검색	-10351
▁검정	-10352
▁겁을	-10353
▁경력	-10354
▁경로	-10355
▁경비	-10356
▁경험	-10357
▁고과	-10358
▁고도	-10359
▁고모	-10360
▁골때	-10361
▁공기	-10362
▁과거	-10363
▁관종	-10364
▁구별	-10365
▁굴려	-10366
▁굴지	-10367
▁그려	-10368
▁그릇	-10369
▁그옷	-10370
▁그이	-10371
▁극단	-10372
▁극혐	-10373
▁금품	-10374
▁급해	-10375
▁급히	-10376
▁기껏	-10377
▁기달	-10378
▁기록	-10379
▁기왕	-10380
▁긴말	-10381
▁길게	-10382
▁길면	-10383
▁김서	-10384
▁까봐	-10385
▁깔아	-10386
▁깜박	-10387
▁깜빵	-10388
▁깽판	-10389
▁꼴랑	-10390
▁꼴이	-10391
▁꼼꼼	-10392
▁꼼짝	-10393
▁꽂아	-10394
▁꾸며	-10395
▁끔찍	-10396
▁나게	-10397
▁나나	-10398
▁나에	-10399
▁나요	-10400
▁나원	-10401
▁나참	-10402
▁나체	-10403
▁날뛰	-10404
▁날씬	-10405
▁날은	-10406
▁날을	-10407
▁낮춰	-10408
▁내기	-10409
▁너고	-10410
▁너그	-10411
▁년아	-10412
▁년전	-10413
▁노려	-10414
▁놀이	-10415
▁놀자	-10416
▁놈의	-10417
▁놔둬	-10418
▁눈엔	-10419
▁늦을	-10420
▁니넨	-10421
▁니딸	-10422
▁니형	-10423
▁님이	-10424
▁다만	-10425
▁다요	-10426
▁다혜	-10427
▁단지	-10428
▁닫고	-10429
▁담달	-10430
▁담요	-10431
▁담주	-10432
▁당황	-10433
▁대고	-10434
▁대다	-10435
▁대선	-10436
▁대씩	-10437
▁대우	-10438
▁던진	-10439
▁덩치	-10440
▁데로	-10441
▁도로	-10442
▁도맡	-10443
▁돈줘	-10444
▁동작	-10445
▁되네	-10446
▁두껍	-10447
▁두려	-10448
▁두명	-10449
▁두분	-10450
▁드러	-10451
▁드셨	-10452
▁든건	-10453
▁들먹	-10454
▁땜에	-10455
▁떠나	-10456
▁떳떳	-10457
▁떼고	-10458
▁떼어	-10459
▁또래	-10460
▁뚱떙	-10461
▁뜻이	-10462
▁띄면	-10463
▁라인	-10464
▁리가	-10465
▁마신	-10466
▁마이	-10467
▁마취	-10468
▁막말	-10469
▁막혔	-10470
▁막힌	-10471
▁말걸	-10472
▁말어	-10473
▁맘만	-10474
▁맘이	-10475
▁맞춤	-10476
▁맡고	-10477
▁먹기	-10478
▁먹냐	-10479
▁먹읍	-10480
▁먹일	-10481
▁멈추	-10482
▁멋진	-10483
▁메기	-10484
▁메이	-10485
▁며느	-10486
▁몇명	-10487
▁목발	-10488
▁목살	-10489
▁목이	-10490
▁몸뚱	-10491
▁몸캠	-10492
▁못만	-10493
▁못본	-10494
▁못자	-10495
▁못찾	-10496
▁무너	-10497
▁무단	-10498
▁문의	-10499
▁문턱	-10500
▁묻는	-10501
▁물러	-10502
▁물에	-10503
▁뭐지	-10504
▁미술	-10505
▁믹스	-10506
▁민석	-10507
▁민우	-10508
▁민주	-10509
▁민호	-10510
▁밀려	-10511
▁바꿨	-10512
▁바랄	-10513
▁박아	-10514
▁반갑	-10515
▁반대	-10516
▁반장	-10517
▁반짝	-10518
▁받게	-10519
▁받네	-10520
▁발견	-10521
▁밝네	-10522
▁배상	-10523
▁백수	-10524
▁버튼	-10525
▁벌고	-10526
▁벨트	-10527
▁벼슬	-10528
▁변태	-10529
▁별건	-10530
▁별일	-10531
▁별점	-10532
▁보냐	-10533
▁보도	-10534
▁보죠	-10535
▁보충	-10536
▁복수	-10537
▁본가	-10538
▁볼게	-10539
▁부부	-10540
▁부인	-10541
▁부하	-10542
▁분발	-10543
▁분의	-10544
▁불행	-10545
▁블랙	-10546
▁비린	-10547
▁비어	-10548
▁비정	-10549
▁비타	-10550
▁비틀	-10551
▁빌빌	-10552
▁빠진	-10553
▁빡빡	-10554
▁빼돌	-10555
▁빼앗	-10556
▁뽑은	-10557
▁뿌리	-10558
▁사나	-10559
▁사네	-10560
▁사줄	-10561
▁사지	-10562
▁사표	-10563
▁사항	-10564
▁산에	-10565
▁산지	-10566
▁살도	-10567
▁새치	-10568
▁새파	-10569
▁색깔	-10570
▁성근	-10571
▁성기	-10572
▁성장	-10573
▁세명	-10574
▁세워	-10575
▁세일	-10576
▁소금	-10577
▁소속	-10578
▁소음	-10579
▁속바	-10580
▁속에	-10581
▁수록	-10582
▁수박	-10583
▁수비	-10584
▁수입	-10585
▁순수	-10586
▁순찰	-10587
▁술먹	-10588
▁술에	-10589
▁술은	-10590
▁숨기	-10591
▁숨쉬	-10592
▁숨이	-10593
▁쉬워	-10594
▁쉬지	-10595
▁시골	-10596
▁시늉	-10597
▁시위	-10598
▁신사	-10599
▁실시	-10600
▁싫냐	-10601
▁싯팔	-10602
▁싶음	-10603
▁싶진	-10604
▁싸운	-10605
▁썩을	-10606
▁쏟아	-10607
▁쐬고	-10608
▁쓰나	-10609
▁쓰냐	-10610
▁쓸만	-10611
▁아르	-10612
▁아쉽	-10613
▁아왜	-10614
▁아퍼	-10615
▁안구	-10616
▁안놀	-10617
▁안달	-10618
▁안배	-10619
▁안살	-10620
▁안써	-10621
▁안올	-10622
▁안입	-10623
▁안차	-10624
▁않다	-10625
▁알것	-10626
▁애매	-10627
▁애자	-10628
▁애좀	-10629
▁야너	-10630
▁야비	-10631
▁약물	-10632
▁어라	-10633
▁어요	-10634
▁언어	-10635
▁엄만	-10636
▁엄지	-10637
▁업계	-10638
▁없단	-10639
▁에게	-10640
▁엘리	-10641
▁여성	-10642
▁여우	-10643
▁연탄	-10644
▁연휴	-10645
▁열고	-10646
▁열쇠	-10647
▁열이	-10648
▁영희	-10649
▁예쁨	-10650
▁예산	-10651
▁오오	-10652
▁오우	-10653
▁오죽	-10654
▁옮기	-10655
▁옮길	-10656
▁와도	-10657
▁와바	-10658
▁와이	-10659
▁왔냐	-10660
▁왜죠	-10661
▁왼손	-10662
▁운운	-10663
▁원당	-10664
▁원투	-10665
▁위주	-10666
▁유품	-10667
▁윤이	-10668
▁이겼	-10669
▁이나	-10670
▁이니	-10671
▁이럼	-10672
▁이모	-10673
▁이물	-10674
▁이여	-10675
▁이왕	-10676
▁이의	-10677
▁이칼	-10678
▁인도	-10679
▁인맥	-10680
▁인증	-10681
▁인테	-10682
▁일당	-10683
▁일루	-10684
▁일방	-10685
▁일한	-10686
▁입시	-10687
▁입원	-10688
▁입장	-10689
▁입지	-10690
▁있음	-10691
▁자란	-10692
▁자를	-10693
▁자위	-10694
▁잔뜩	-10695
▁잔만	-10696
▁잘되	-10697
▁잘살	-10698
▁잘아	-10699
▁잘안	-10700
▁잘좀	-10701
▁잘한	-10702
▁잘할	-10703
▁잠이	-10704
▁잡네	-10705
▁잡일	-10706
▁장인	-10707
▁재능	-10708
▁재용	-10709
▁저봐	-10710
▁저주	-10711
▁저쪽	-10712
▁전과	-10713
▁전날	-10714
▁전번	-10715
▁전세	-10716
▁전시	-10717
▁전엔	-10718
▁전역	-10719
▁정우	-10720
▁정지	-10721
▁제꺼	-10722
▁제니	-10723
▁조국	-10724
▁조리	-10725
▁조작	-10726
▁조폭	-10727
▁조회	-10728
▁죄야	-10729
▁주만	-10730
▁주사	-10731
▁주위	-10732
▁중간	-10733
▁쥐어	-10734
▁즉시	-10735
▁증말	-10736
▁지구	-10737
▁지능	-10738
▁지역	-10739
▁지잡	-10740
▁지정	-10741
▁지체	-10742
▁지현	-10743
▁진급	-10744
▁집합	-10745
▁짓도	-10746
▁징징	-10747
▁짜리	-10748
▁쩔뚝	-10749
▁찔려	-10750
▁차렸	-10751
▁차이	-10752
▁참견	-10753
▁찾았	-10754
▁채로	-10755
▁첫째	-10756
▁청구	-10757
▁쳐먹	-10758
▁최악	-10759
▁최종	-10760
▁축구	-10761
▁축의	-10762
▁충고	-10763
▁충전	-10764
▁치냐	-10765
▁치러	-10766
▁치켜	-10767
▁칼만	-10768
▁케어	-10769
▁코도	-10770
▁코딩	-10771
▁크네	-10772
▁키킥	-10773
▁타령	-10774
▁타면	-10775
▁탈출	-10776
▁탓은	-10777
▁터지	-10778
▁테블	-10779
▁토할	-10780
▁특성	-10781
▁티도	-10782
▁파는	-10783
▁팔다	-10784
▁팔았	-10785
▁팥빙	-10786
▁패션	-10787
▁패스	-10788
▁퍽퍽	-10789
▁편히	-10790
▁평상	-10791
▁폐지	-10792
▁포함	-10793
▁폰에	-10794
▁표현	-10795
▁푸는	-10796
▁풀고	-10797
▁풍비	-10798
▁피고	-10799
▁피도	-10800
▁피로	-10801
▁피면	-10802
▁피부	-10803
▁피워	-10804
▁하도	-10805
▁하며	-10806
▁한갑	-10807
▁한개	-10808
▁한것	-10809
▁한창	-10810
▁합격	-10811
▁핫바	-10812
▁해두	-10813
▁해봤	-10814
▁해지	-10815
▁험담	-10816
▁협상	-10817
▁협의	-10818
▁협조	-10819
▁혜택	-10820
▁호구	-10821
▁혼잣	-10822
▁혼좀	-10823
▁환갑	-10824
▁환경	-10825
▁환멸	-10826
▁회장	-10827
▁휴직	-10828
▁흔들	-10829
▁희망	-10830
가세요	-10831
가야지	-10832
갈게요	-10833
같아요	-10834
거같냐	-10835
거리를	-10836
계세요	-10837
고싶나	-10838
고싶지	-10839
곳에서	-10840
구니가	-10841
그래머	-10842
그래요	-10843
그러면	-10844
그렇게	-10845
급으로	-10846
기까지	-10847
꺼에요	-10848
나오게	-10849
날인데	-10850
납니다	-10851
났어요	-10852
놨어요	-10853
는거면	-10854
님한테	-10855
다는건	-10856
다니네	-10857
다리로	-10858
달에도	-10859
답니까	-10860
대리가	-10861
더라니	-10862
도그랑	-10863
돼지가	-10864
드려서	-10865
드려야	-10866
들었어	-10867
떄려봐	-10868
라니깐	-10869
란다고	-10870
려고요	-10871
렸다며	-10872
리지마	-10873
마트폰	-10874
만큼은	-10875
만하면	-10876
말아요	-10877
먹었다	-10878
먹었어	-10879
모님이	-10880
민씨가	-10881
바이트	-10882
방에서	-10883
번호가	-10884
보는데	-10885
본건데	-10886
봅니다	-10887
부분이	-10888
빠지게	-10889
쁩니다	-10890
상관이	-10891
상병님	-10892
선에서	-10893
셔서요	-10894
셨다고	-10895
소에서	-10896
수급자	-10897
시간을	-10898
시니까	-10899
시켜서	-10900
신대로	-10901
싶으면	-10902
쓴다고	-10903
아가서	-10904
아닌가	-10905
아래로	-10906
아빠가	-10907
았더니	-10908
았어서	-10909
야지요	-10910
약자석	-10911
어딨어	-10912
어떻게	-10913
어봐도	-10914
었구나	-10915
었구만	-10916
오든가	-10917
오라면	-10918
왔는가	-10919
왔잖아	-10920
왜그래	-10921
이네요	-10922
이세요	-10923
이어트	-10924
인거지	-10925
인이야	-10926
일이라	-10927
있다고	-10928
있어라	-10929
자리가	-10930
자리에	-10931
적이지	-10932
적인거	-10933
전이야	-10934
정까지	-10935
정도는	-10936
정도면	-10937
주는거	-10938
주시죠	-10939
준거야	-10940
중하게	-10941
줬으니	-10942
지겠지	-10943
직원이	-10944
직으로	-10945
질텐데	-10946
창으로	-10947
코야끼	-10948
하거나	-10949
하겠냐	-10950
하기도	-10951
하니깐	-10952
하다니	-10953
하라면	-10954
학생이	-10955
한다면	-10956
한사람	-10957
할거고	-10958
할때는	-10959
해놨어	-10960
해봐야	-10961
해봐요	-10962
해야해	-10963
해주실	-10964
해준거	-10965
▁가게가	-10966
▁가는지	-10967
▁가던지	-10968
▁가볍게	-10969
▁가서도	-10970
▁가시면	-10971
▁가야돼	-10972
▁가져갔	-10973
▁각오는	-10974
▁간단히	-10975
▁갈까요	-10976
▁갔다온	-10977
▁강남역	-10978
▁같길래	-10979
▁같다고	-10980
▁같았어	-10981
▁같은반	-10982
▁같지도	-10983
▁갚아줘	-10984
▁개그맨	-10985
▁걔네가	-10986
▁거기로	-10987
▁거꾸로	-10988
▁거리는	-10989
▁거면서	-10990
▁거스름	-10991
▁거절해	-10992
▁걱정이	-10993
▁건강이	-10994
▁건들이	-10995
▁건물이	-10996
▁걸음걸	-10997
▁것처럼	-10998
▁게임도	-10999
▁겠어요	-11000
▁결혼할	-11001
▁경비실	-11002
▁경찰을	-11003
▁계산해	-11004
▁계좌에	-11005
▁계좌이	-11006
▁고구마	-11007
▁고마운	-11008
▁고맙게	-11009
▁고맙긴	-11010
▁고생한	-11011
▁고의로	-11012
▁고쳐야	-11013
▁곤란할	-11014
▁공부는	-11015
▁과잉진	-11016
▁과장이	-11017
▁과체중	-11018
▁관리를	-11019
▁괜찮죠	-11020
▁구라까	-11021
▁구석에	-11022
▁국밥집	-11023
▁굼벵아	-11024
▁권사님	-11025
▁귀찮아	-11026
▁규정이	-11027
▁그거지	-11028
▁그것만	-11029
▁그것은	-11030
▁그것좀	-11031
▁그나마	-11032
▁그래라	-11033
▁그랬냐	-11034
▁그런것	-11035
▁그럴래	-11036
▁그럴수	-11037
▁그럴일	-11038
▁그만둘	-11039
▁급한일	-11040
▁기본이	-11041
▁기한은	-11042
▁기회는	-11043
▁기획안	-11044
▁길이야	-11045
▁김디귿	-11046
▁김책임	-11047
▁까라고	-11048
▁까지는	-11049
▁깨끗한	-11050
▁꼬리치	-11051
▁끈기가	-11052
▁끝나서	-11053
▁끝나요	-11054
▁끝냈어	-11055
▁끼어들	-11056
▁끼치지	-11057
▁나갈게	-11058
▁나갈래	-11059
▁나갔다	-11060
▁나갔어	-11061
▁나같은	-11062
▁나까지	-11063
▁나쁘지	-11064
▁나온거	-11065
▁나왔네	-11066
▁나주라	-11067
▁나죽고	-11068
▁나처럼	-11069
▁나타나	-11070
▁남이사	-11071
▁남편도	-11072
▁내것도	-11073
▁내꺼다	-11074
▁내년에	-11075
▁내눈에	-11076
▁내려두	-11077
▁내야돼	-11078
▁내용은	-11079
▁내일이	-11080
▁내줘야	-11081
▁냄새는	-11082
▁너랑은	-11083
▁너무들	-11084
▁넉넉히	-11085
▁넘어진	-11086
▁년만에	-11087
▁노는데	-11088
▁노력을	-11089
▁노인이	-11090
▁놀지마	-11091
▁놈이야	-11092
▁놈한테	-11093
▁누구를	-11094
▁눈깔을	-11095
▁눈알을	-11096
▁눈웃음	-11097
▁늙은이	-11098
▁니같은	-11099
▁니들도	-11100
▁다냐고	-11101
▁다녀도	-11102
▁다녔냐	-11103
▁다녔어	-11104
▁다닐지	-11105
▁다른건	-11106
▁다하고	-11107
▁단무지	-11108
▁단순히	-11109
▁달라지	-11110
▁담배좀	-11111
▁담임이	-11112
▁당분간	-11113
▁당연한	-11114
▁대놓고	-11115
▁대단한	-11116
▁대답해	-11117
▁대리는	-11118
▁대화가	-11119
▁더더욱	-11120
▁데려가	-11121
▁도와주	-11122
▁도움도	-11123
▁도움을	-11124
▁돈내고	-11125
▁돈주면	-11126
▁돌아와	-11127
▁돌았냐	-11128
▁돌잔치	-11129
▁동생을	-11130
▁돼지냐	-11131
▁되도록	-11132
▁되돌려	-11133
▁두들겨	-11134
▁뒤져봐	-11135
▁뒤통수	-11136
▁드는거	-11137
▁드루와	-11138
▁드릴게	-11139
▁드시고	-11140
▁듣겠어	-11141
▁들려서	-11142
▁들어도	-11143
▁들어줄	-11144
▁들어줘	-11145
▁들은거	-11146
▁들을게	-11147
▁등급이	-11148
▁딱이네	-11149
▁딸만은	-11150
▁때려서	-11151
▁때리는	-11152
▁떨어뜨	-11153
▁또라이	-11154
▁똑같네	-11155
▁마라야	-11156
▁마셔서	-11157
▁마음도	-11158
▁마치고	-11159
▁막말로	-11160
▁만나요	-11161
▁만드냐	-11162
▁만드는	-11163
▁만들면	-11164
▁만원짜	-11165
▁많이도	-11166
▁말던지	-11167
▁말든지	-11168
▁말밖에	-11169
▁말아야	-11170
▁말이니	-11171
▁말자야	-11172
▁말한건	-11173
▁말한것	-11174
▁맘카페	-11175
▁망가뜨	-11176
▁망치고	-11177
▁망하게	-11178
▁맞나요	-11179
▁머저리	-11180
▁먹어야	-11181
▁먹을게	-11182
▁멈춰줘	-11183
▁멋있다	-11184
▁멍청해	-11185
▁며칠째	-11186
▁명문대	-11187
▁몇번을	-11188
▁모르니	-11189
▁모자라	-11190
▁모자란	-11191
▁모조리	-11192
▁목숨값	-11193
▁몸매도	-11194
▁못먹고	-11195
▁못배운	-11196
▁못봤어	-11197
▁못치냐	-11198
▁못푸냐	-11199
▁못하니	-11200
▁못했다	-11201
▁무엇이	-11202
▁뭐라구	-11203
▁뭐하게	-11204
▁뭐했어	-11205
▁미연씨	-11206
▁미자씨	-11207
▁미쳤다	-11208
▁미팅이	-11209
▁민아씨	-11210
▁민우가	-11211
▁민재야	-11212
▁민주야	-11213
▁바꾸고	-11214
▁바꾸면	-11215
▁바닥이	-11216
▁바른거	-11217
▁바보로	-11218
▁바쁘게	-11219
▁바코드	-11220
▁박인턴	-11221
▁반가워	-11222
▁반려견	-11223
▁반반한	-11224
▁받아들	-11225
▁밤까지	-11226
▁방법도	-11227
▁배우고	-11228
▁버릇이	-11229
▁버린다	-11230
▁번이요	-11231
▁벗어나	-11232
▁별것도	-11233
▁별로야	-11234
▁병원을	-11235
▁보고도	-11236
▁보기도	-11237
▁보내야	-11238
▁보내요	-11239
▁보내지	-11240
▁보는거	-11241
▁보던가	-11242
▁보시면	-11243
▁보여서	-11244
▁보여요	-11245
▁보지도	-11246
▁보호자	-11247
▁볼게요	-11248
▁봅니다	-11249
▁봐준다	-11250
▁봤잖아	-11251
▁부러워	-11252
▁부러트	-11253
▁부르고	-11254
▁부르는	-11255
▁부르면	-11256
▁부모도	-11257
▁부분을	-11258
▁부수고	-11259
▁부시고	-11260
▁부장이	-11261
▁부탁좀	-11262
▁분들도	-11263
▁분들이	-11264
▁분인데	-11265
▁분전에	-11266
▁불러봐	-11267
▁불렀어	-11268
▁불안해	-11269
▁불이익	-11270
▁비겁한	-11271
▁비슷한	-11272
▁비싼데	-11273
▁비정상	-11274
▁빌리면	-11275
▁빌린다	-11276
▁빠져나	-11277
▁빵셔틀	-11278
▁뻔하지	-11279
▁뽑아야	-11280
▁뽑으면	-11281
▁뽑히고	-11282
▁사귀면	-11283
▁사라고	-11284
▁사라지	-11285
▁사라질	-11286
▁사람아	-11287
▁사례금	-11288
▁사먹고	-11289
▁사시미	-11290
▁사오고	-11291
▁사전에	-11292
▁사주고	-11293
▁사주라	-11294
▁사주면	-11295
▁사준거	-11296
▁사진들	-11297
▁살거야	-11298
▁살려고	-11299
▁살만한	-11300
▁살수가	-11301
▁살았어	-11302
▁상관할	-11303
▁상도덕	-11304
▁상태가	-11305
▁상황을	-11306
▁새론씨	-11307
▁새치기	-11308
▁색깔이	-11309
▁샐러드	-11310
▁생기고	-11311
▁서류들	-11312
▁서울대	-11313
▁선물을	-11314
▁설명을	-11315
▁성적표	-11316
▁성추행	-11317
▁성폭행	-11318
▁세탁비	-11319
▁소리니	-11320
▁소리만	-11321
▁소문났	-11322
▁소문은	-11323
▁소연아	-11324
▁손들어	-11325
▁수급자	-11326
▁숙이고	-11327
▁숙제가	-11328
▁술먹고	-11329
▁스케줄	-11330
▁스타일	-11331
▁스타킹	-11332
▁스토커	-11333
▁슬리퍼	-11334
▁승연씨	-11335
▁승진을	-11336
▁시기에	-11337
▁시스템	-11338
▁시작한	-11339
▁시켜주	-11340
▁신을게	-11341
▁실수한	-11342
▁싫거든	-11343
▁싫었어	-11344
▁싫은가	-11345
▁심심해	-11346
▁심지어	-11347
▁심하긴	-11348
▁심하신	-11349
▁심한데	-11350
▁싶지가	-11351
▁써야지	-11352
▁썼다고	-11353
▁쓰는게	-11354
▁쓸거야	-11355
▁아까도	-11356
▁아나봐	-11357
▁아나요	-11358
▁아녜요	-11359
▁아니구	-11360
▁아니까	-11361
▁아니꼬	-11362
▁아닌지	-11363
▁아들도	-11364
▁아직요	-11365
▁아프면	-11366
▁아프지	-11367
▁안괴롭	-11368
▁안나타	-11369
▁안들리	-11370
▁안맞아	-11371
▁안받아	-11372
▁안쓰럽	-11373
▁안에서	-11374
▁안왔지	-11375
▁안움직	-11376
▁안중요	-11377
▁안하냐	-11378
▁안해도	-11379
▁않는다	-11380
▁않도록	-11381
▁않아도	-11382
▁않으셨	-11383
▁않잖아	-11384
▁알기나	-11385
▁알려야	-11386
▁알려준	-11387
▁알아둬	-11388
▁알아와	-11389
▁앞뒤가	-11390
▁애까지	-11391
▁애인도	-11392
▁애인이	-11393
▁약속도	-11394
▁약이야	-11395
▁양반이	-11396
▁양심이	-11397
▁어디나	-11398
▁어딜가	-11399
▁어딨니	-11400
▁어떤거	-11401
▁어떤게	-11402
▁어떨까	-11403
▁어린애	-11404
▁억이야	-11405
▁얼룩이	-11406
▁얼만지	-11407
▁얼어죽	-11408
▁엄연히	-11409
▁없겠네	-11410
▁없겠지	-11411
▁없고요	-11412
▁없구만	-11413
▁없는게	-11414
▁없는놈	-11415
▁없을거	-11416
▁엊그제	-11417
▁여기를	-11418
▁여자를	-11419
▁여친이	-11420
▁역겨운	-11421
▁역겹다	-11422
▁연락안	-11423
▁연락이	-11424
▁연습해	-11425
▁엿먹이	-11426
▁영원히	-11427
▁영지씨	-11428
▁예뻐서	-11429
▁예약이	-11430
▁오는거	-11431
▁오늘밤	-11432
▁온라인	-11433
▁올려서	-11434
▁올린다	-11435
▁와봐요	-11436
▁왜자꾸	-11437
▁왜저래	-11438
▁요금이	-11439
▁요번에	-11440
▁용돈을	-11441
▁용서해	-11442
▁우리만	-11443
▁우리형	-11444
▁우습나	-11445
▁우체국	-11446
▁운동을	-11447
▁울겠다	-11448
▁울지마	-11449
▁워크숍	-11450
▁월급은	-11451
▁위자료	-11452
▁위치에	-11453
▁위험한	-11454
▁유진아	-11455
▁유포해	-11456
▁윤대리	-11457
▁음식값	-11458
▁의도가	-11459
▁이거나	-11460
▁이거를	-11461
▁이건가	-11462
▁이과장	-11463
▁이놈이	-11464
▁이동네	-11465
▁이딴게	-11466
▁이라고	-11467
▁이러니	-11468
▁이런식	-11469
▁이름은	-11470
▁이름을	-11471
▁이모가	-11472
▁이발병	-11473
▁이벤트	-11474
▁이사원	-11475
▁이사장	-11476
▁이상형	-11477
▁이새키	-11478
▁이에요	-11479
▁이유도	-11480
▁이자는	-11481
▁이지랄	-11482
▁이해를	-11483
▁인간은	-11484
▁인간이	-11485
▁인데요	-11486
▁인부들	-11487
▁인사도	-11488
▁인생은	-11489
▁인터폰	-11490
▁인턴이	-11491
▁일기장	-11492
▁일보다	-11493
▁일부로	-11494
▁일인지	-11495
▁일하시	-11496
▁일한지	-11497
▁입금이	-11498
▁입다물	-11499
▁입맛에	-11500
▁입에서	-11501
▁있었니	-11502
▁있자나	-11503
▁잊었나	-11504
▁자기는	-11505
▁자기도	-11506
▁자네들	-11507
▁자네만	-11508
▁자신을	-11509
▁자신이	-11510
▁작아서	-11511
▁잘나가	-11512
▁잘난줄	-11513
▁잘못도	-11514
▁잘보여	-11515
▁잘하지	-11516
▁잘했다	-11517
▁장난이	-11518
▁장모님	-11519
▁재수없	-11520
▁저런걸	-11521
▁저보고	-11522
▁저지금	-11523
▁전단지	-11524
▁전화만	-11525
▁점심도	-11526
▁점이야	-11527
▁정리좀	-11528
▁정말요	-11529
▁정색해	-11530
▁정시에	-11531
▁정직원	-11532
▁정한씨	-11533
▁정해져	-11534
▁조리를	-11535
▁존나게	-11536
▁좋겠니	-11537
▁좋은게	-11538
▁좋을거	-11539
▁죄송합	-11540
▁주는거	-11541
▁주셔서	-11542
▁주소를	-11543
▁주시죠	-11544
▁죽는데	-11545
▁죽여야	-11546
▁줄넘기	-11547
▁줘야돼	-11548
▁줬다고	-11549
▁지갑이	-11550
▁지내지	-11551
▁지냈어	-11552
▁지르고	-11553
▁지어낸	-11554
▁지영씨	-11555
▁지키고	-11556
▁지희씨	-11557
▁진아야	-11558
▁진용아	-11559
▁진정한	-11560
▁집구석	-11561
▁쪼잔한	-11562
▁쪽에서	-11563
▁쪽팔리	-11564
▁찌르기	-11565
▁찌질한	-11566
▁찍으면	-11567
▁차례야	-11568
▁차릴래	-11569
▁착용해	-11570
▁착하고	-11571
▁채우는	-11572
▁책임감	-11573
▁쳐다봤	-11574
▁쳐맞아	-11575
▁쳐맞을	-11576
▁최인턴	-11577
▁취직도	-11578
▁치려고	-11579
▁치우고	-11580
▁친구고	-11581
▁퀄리티	-11582
▁큰소리	-11583
▁큰일이	-11584
▁키라고	-11585
▁키우기	-11586
▁택시비	-11587
▁터져서	-11588
▁털어봐	-11589
▁테스트	-11590
▁테이프	-11591
▁토달지	-11592
▁통장에	-11593
▁튕기네	-11594
▁패드립	-11595
▁편해서	-11596
▁푸하하	-11597
▁프라이	-11598
▁프로필	-11599
▁피피티	-11600
▁필요없	-11601
▁하거든	-11602
▁하겠냐	-11603
▁하겠네	-11604
▁하겠니	-11605
▁하나로	-11606
▁하냐고	-11607
▁하다니	-11608
▁하랬지	-11609
▁하루는	-11610
▁하자는	-11611
▁하지않	-11612
▁학교가	-11613
▁학교는	-11614
▁한국대	-11615
▁한국에	-11616
▁한다니	-11617
▁한심한	-11618
▁한우로	-11619
▁할거면	-11620
▁할말이	-11621
▁해달라	-11622
▁해봐도	-11623
▁해봐야	-11624
▁해봐요	-11625
▁해서든	-11626
▁해와라	-11627
▁해줄께	-11628
▁해줘라	-11629
▁했지만	-11630
▁행보관	-11631
▁허드렛	-11632
▁현과장	-11633
▁현금은	-11634
▁현실이	-11635
▁형아가	-11636
▁혜주야	-11637
▁호박에	-11638
▁화낸다	-11639
▁화장품	-11640
▁확실해	-11641
▁환불좀	-11642
▁환자들	-11643
▁회사도	-11644
▁훔친거	-11645
▁휴가도	-11646
▁힘들면	-11647
가야해요	-11648
거라고요	-11649
거리면서	-11650
겟습니다	-11651
겠는데요	-11652
는거아냐	-11653
다니면서	-11654
단말이지	-11655
달라는데	-11656
더라고요	-11657
되는거야	-11658
드렸어요	-11659
라마라야	-11660
려했는데	-11661
렸잖아요	-11662
먹으려고	-11663
사람인줄	-11664
송합니다	-11665
습니다만	-11666
시키지마	-11667
아닙니다	-11668
야되니까	-11669
왔어야지	-11670
이라는게	-11671
있으니까	-11672
전까지는	-11673
죄송해요	-11674
준다니까	-11675
하기라도	-11676
하기에는	-11677
하나라도	-11678
하는구나	-11679
하셨나요	-11680
하시는게	-11681
하시는데	-11682
하시면서	-11683
하자마자	-11684
하지마라	-11685
한다는데	-11686
할때까지	-11687
해야겠다	-11688
해주니까	-11689
해주셔야	-11690
했으니까	-11691
▁가기전에	-11692
▁가능하지	-11693
▁가셔야죠	-11694
▁가위바위	-11695
▁가져와봐	-11696
▁가져와야	-11697
▁가족이고	-11698
▁가지가지	-11699
▁각오하는	-11700
▁갈기갈기	-11701
▁감사하게	-11702
▁갔다오면	-11703
▁갚겠다고	-11704
▁거아니야	-11705
▁거짓말도	-11706
▁거짓말이	-11707
▁걱정돼서	-11708
▁걸린다고	-11709
▁것입니다	-11710
▁게임하는	-11711
▁경고했다	-11712
▁고도비만	-11713
▁고마워요	-11714
▁공공장소	-11715
▁공장에서	-11716
▁과정에서	-11717
▁교무실로	-11718
▁교육시키	-11719
▁구라치고	-11720
▁궁금하면	-11721
▁궁금한데	-11722
▁그러는게	-11723
▁그러라고	-11724
▁그러면서	-11725
▁그런거죠	-11726
▁그런걸로	-11727
▁그런뜻이	-11728
▁그런말은	-11729
▁그럴수도	-11730
▁그럼그럼	-11731
▁그렇게나	-11732
▁그만두고	-11733
▁그만둬야	-11734
▁그만하라	-11735
▁그만할래	-11736
▁그쪽이랑	-11737
▁금요일에	-11738
▁급하니까	-11739
▁급한일이	-11740
▁기다려라	-11741
▁기다리는	-11742
▁기대해라	-11743
▁기분나쁜	-11744
▁기스나면	-11745
▁기억나지	-11746
▁김선생이	-11747
▁나가라고	-11748
▁나라에서	-11749
▁나쁘네요	-11750
▁나쁘니까	-11751
▁나였으면	-11752
▁남자들이	-11753
▁내일이면	-11754
▁너네학교	-11755
▁너한테서	-11756
▁너희들이	-11757
▁노력하고	-11758
▁노력할게	-11759
▁노력했어	-11760
▁노약자석	-11761
▁노트북이	-11762
▁누가보면	-11763
▁누구신지	-11764
▁누구인지	-11765
▁누구하나	-11766
▁누군지도	-11767
▁다가오면	-11768
▁다니잖아	-11769
▁다닐거야	-11770
▁다리병신	-11771
▁다이어트	-11772
▁다행이야	-11773
▁다행이지	-11774
▁달달한거	-11775
▁담으라고	-11776
▁도와줄수	-11777
▁도와줘요	-11778
▁돈없으면	-11779
▁돈좀있냐	-11780
▁됐으니까	-11781
▁되어있어	-11782
▁두고보자	-11783
▁두손으로	-11784
▁뒷담까고	-11785
▁들어간다	-11786
▁들어보자	-11787
▁들어오고	-11788
▁들어오지	-11789
▁들어와도	-11790
▁들어왔나	-11791
▁들으라고	-11792
▁따라와라	-11793
▁따라와봐	-11794
▁따라하고	-11795
▁따라해봐	-11796
▁따라해요	-11797
▁때리지만	-11798
▁떨어졌어	-11799
▁떨어지게	-11800
▁떨어지고	-11801
▁뚱뚱한거	-11802
▁마무리가	-11803
▁만든거야	-11804
▁만들어도	-11805
▁만들어줄	-11806
▁만만하니	-11807
▁만만해보	-11808
▁만원이요	-11809
▁많습니다	-11810
▁많아서요	-11811
▁말대꾸가	-11812
▁말로해서	-11813
▁말씀인지	-11814
▁말아야지	-11815
▁말을하네	-11816
▁말이많아	-11817
▁말조심해	-11818
▁말하세요	-11819
▁말하잖아	-11820
▁말하지만	-11821
▁말한대로	-11822
▁맛있는데	-11823
▁맞을려고	-11824
▁맞잖아요	-11825
▁매일같이	-11826
▁먹는다고	-11827
▁먹었어요	-11828
▁먹으려고	-11829
▁먹읍시다	-11830
▁멀쩡하게	-11831
▁멍청해서	-11832
▁명예훼손	-11833
▁모르나봐	-11834
▁모르세요	-11835
▁목숨이야	-11836
▁못생겼냐	-11837
▁못하나요	-11838
▁못했는데	-11839
▁못했어요	-11840
▁무섭다고	-11841
▁무슨말을	-11842
▁무식하게	-11843
▁물어볼게	-11844
▁물어봐도	-11845
▁물어봐야	-11846
▁물품보관	-11847
▁뭐때문에	-11848
▁미쳤어요	-11849
▁미친거야	-11850
▁미친년이	-11851
▁민우오빠	-11852
▁바닥에서	-11853
▁바람막이	-11854
▁바쁘니까	-11855
▁박과장님	-11856
▁박대리가	-11857
▁박사원은	-11858
▁반말이야	-11859
▁받는다고	-11860
▁받았는데	-11861
▁밥먹으러	-11862
▁방법이야	-11863
▁배고파서	-11864
▁배신하면	-11865
▁버렸어요	-11866
▁병신이라	-11867
▁보고하고	-11868
▁보내주면	-11869
▁보내주지	-11870
▁보는거지	-11871
▁보여줄까	-11872
▁보이는데	-11873
▁보이스피	-11874
▁보이잖아	-11875
▁봐서라도	-11876
▁봐주니까	-11877
▁부끄럽지	-11878
▁부르지마	-11879
▁부모님을	-11880
▁부장님께	-11881
▁부족한데	-11882
▁부탁드려	-11883
▁부탁하는	-11884
▁분위기도	-11885
▁불만이면	-11886
▁불편하고	-11887
▁불편하신	-11888
▁비정규직	-11889
▁빌려주기	-11890
▁빌려줘서	-11891
▁빠릿빠릿	-11892
▁빠진다고	-11893
▁뻔뻔하네	-11894
▁사과하고	-11895
▁사과하지	-11896
▁사람이네	-11897
▁사람인지	-11898
▁사무실에	-11899
▁사생활침	-11900
▁사장님도	-11901
▁사장님은	-11902
▁사회에서	-11903
▁새끼들아	-11904
▁생각안해	-11905
▁생각없어	-11906
▁생각이야	-11907
▁생각하나	-11908
▁생각하니	-11909
▁생각해야	-11910
▁생겼잖아	-11911
▁생긴대로	-11912
▁생일이라	-11913
▁생일파티	-11914
▁서로서로	-11915
▁선배님들	-11916
▁섭섭하게	-11917
▁소용없어	-11918
▁수진씨가	-11919
▁쉬고싶어	-11920
▁스마트폰	-11921
▁시작하자	-11922
▁시키시는	-11923
▁신고하고	-11924
▁신기하다	-11925
▁신체포기	-11926
▁실수해서	-11927
▁싫다니까	-11928
▁심각하다	-11929
▁심심한데	-11930
▁썼습니다	-11931
▁쓰레기가	-11932
▁쓰레기통	-11933
▁쓸데없는	-11934
▁씨씨티비	-11935
▁씻고다녀	-11936
▁아니겠지	-11937
▁아니라구	-11938
▁아니라면	-11939
▁아니였어	-11940
▁아십니까	-11941
▁아저씨도	-11942
▁아주그냥	-11943
▁아프겠다	-11944
▁안가지고	-11945
▁안갚으면	-11946
▁안그러냐	-11947
▁안그럴게	-11948
▁안나는데	-11949
▁안넘어가	-11950
▁안돌아가	-11951
▁안되니까	-11952
▁안된다는	-11953
▁안됩니까	-11954
▁안들어요	-11955
▁안보여서	-11956
▁안보이냐	-11957
▁안하는데	-11958
▁안할게요	-11959
▁않으시면	-11960
▁알고있지	-11961
▁알려주면	-11962
▁알면서도	-11963
▁알아듣게	-11964
▁알았잖아	-11965
▁약속이라	-11966
▁양아치야	-11967
▁얘기하면	-11968
▁어떤거요	-11969
▁어떻다고	-11970
▁어려운데	-11971
▁어른들이	-11972
▁어울린다	-11973
▁어제부터	-11974
▁어쨌는데	-11975
▁어쩌자는	-11976
▁어쩔수가	-11977
▁억울하게	-11978
▁업무중에	-11979
▁없었잖아	-11980
▁없으시면	-11981
▁엉망이네	-11982
▁엉망이야	-11983
▁에스프레	-11984
▁여드름이	-11985
▁여자들은	-11986
▁영수증은	-11987
▁영업방해	-11988
▁예민한거	-11989
▁오는거야	-11990
▁오는길에	-11991
▁오늘내로	-11992
▁오늘부로	-11993
▁오빠한테	-11994
▁올릴거야	-11995
▁옷차림이	-11996
▁와보라고	-11997
▁와보세요	-11998
▁와이프는	-11999
▁와이프랑	-12000
▁외로워서	-12001
▁외삼촌이	-12002
▁요금제로	-12003
▁욕하지마	-12004
▁우리나라	-12005
▁울보래요	-12006
▁위치추적	-12007
▁음식이랑	-12008
▁음주운전	-12009
▁의원님이	-12010
▁이거하나	-12011
▁이것봐라	-12012
▁이것부터	-12013
▁이런다고	-12014
▁이번달은	-12015
▁이쁘더라	-12016
▁이상태로	-12017
▁이새끼는	-12018
▁이야기는	-12019
▁이정도면	-12020
▁인사팀에	-12021
▁인스타에	-12022
▁인테리어	-12023
▁일머리가	-12024
▁일어나서	-12025
▁일이에요	-12026
▁입금하지	-12027
▁입다물어	-12028
▁입사한지	-12029
▁있긴한데	-12030
▁있다고요	-12031
▁있으라고	-12032
▁있으시면	-12033
▁있을거라	-12034
▁자네같은	-12035
▁자네한테	-12036
▁자랑하고	-12037
▁자살했어	-12038
▁잘났다고	-12039
▁잘들을게	-12040
▁잘라줄까	-12041
▁잘못한게	-12042
▁잘하겠다	-12043
▁잘하니까	-12044
▁잘하잖아	-12045
▁잘할게요	-12046
▁장난으로	-12047
▁장인어른	-12048
▁재밌겠다	-12049
▁재수없네	-12050
▁저녁까지	-12051
▁정글차이	-12052
▁정시퇴근	-12053
▁정신못차	-12054
▁정신으로	-12055
▁제출해야	-12056
▁조용히해	-12057
▁좋게좋게	-12058
▁좋겠는데	-12059
▁좋으니까	-12060
▁좋으라고	-12061
▁좋으면서	-12062
▁좋은말할	-12063
▁죄송하게	-12064
▁주민등록	-12065
▁주셔야죠	-12066
▁주셨는데	-12067
▁죽고싶다	-12068
▁죽어볼래	-12069
▁죽여버려	-12070
▁죽을라고	-12071
▁죽을지도	-12072
▁죽일꺼야	-12073
▁준비해라	-12074
▁중요한게	-12075
▁지갑에서	-12076
▁지난주에	-12077
▁진심으로	-12078
▁진정하시	-12079
▁진정해봐	-12080
▁집에가서	-12081
▁차리겠지	-12082
▁처음에는	-12083
▁천만원만	-12084
▁체육대회	-12085
▁쳐다보지	-12086
▁초과근무	-12087
▁취소하고	-12088
▁층간소음	-12089
▁친구인데	-12090
▁커피맛이	-12091
▁키우는데	-12092
▁타코야끼	-12093
▁태어나게	-12094
▁통금시간	-12095
▁틀렸잖아	-12096
▁편하잖아	-12097
▁포기하고	-12098
▁푸하하하	-12099
▁풍비박산	-12100
▁필요하다	-12101
▁하겠다는	-12102
▁하겠어요	-12103
▁하기싫어	-12104
▁하나쯤은	-12105
▁하는거죠	-12106
▁하는건가	-12107
▁하는것도	-12108
▁학부모님	-12109
▁학생이라	-12110
▁학원다니	-12111
▁한국에서	-12112
▁한마디도	-12113
▁핫도그랑	-12114
▁해야되는	-12115
▁해주겠어	-12116
▁해주려고	-12117
▁해준다는	-12118
▁해줘야지	-12119
▁핸드폰에	-12120
▁허구한날	-12121
▁허구헌날	-12122
▁헤어지지	-12123
▁현금으로	-12124
▁협박까지	-12125
▁환불이나	-12126
▁회사와서	-12127
▁회사일이	-12128
▁후회하게	-12129
▁후회하지	-12130
▁힘들었어	-12131
상관이에요	-12132
시는거에요	-12133
신거잖아요	-12134
하셨습니다	-12135
하셨잖아요	-12136
하시는거죠	-12137
할것같은데	-12138
해줄테니까	-12139
▁가고싶으면	-12140
▁가져갔잖아	-12141
▁가족들까지	-12142
▁가지고와라	-12143
▁개인정보를	-12144
▁게이새끼야	-12145
▁고릴라처럼	-12146
▁곤란한데요	-12147
▁괜찮으세요	-12148
▁그러셨어요	-12149
▁그러시는지	-12150
▁그런거잖아	-12151
▁그럴리가요	-12152
▁그만두던지	-12153
▁그만하시죠	-12154
▁금요일까지	-12155
▁김대리한테	-12156
▁꺼지라니까	-12157
▁끝내주세요	-12158
▁나올때마다	-12159
▁남자애들이	-12160
▁내려가세요	-12161
▁내일까지는	-12162
▁노력했는데	-12163
▁늦었습니다	-12164
▁다운증후군	-12165
▁다음달까지	-12166
▁다음주부터	-12167
▁더러우니까	-12168
▁돌려줬잖아	-12169
▁드렸는데요	-12170
▁들어가세요	-12171
▁따라오라고	-12172
▁마찬가지야	-12173
▁만들어줄게	-12174
▁말대꾸하는	-12175
▁말씀드리고	-12176
▁말씀드리는	-12177
▁말씀하시지	-12178
▁맞아야겠다	-12179
▁못생겼잖아	-12180
▁못알아듣네	-12181
▁못알아먹어	-12182
▁못차렸구나	-12183
▁문제인가요	-12184
▁물어보세요	-12185
▁미친새끼야	-12186
▁보기만해도	-12187
▁부러뜨려야	-12188
▁부장님한테	-12189
▁부탁입니다	-12190
▁부탁하는데	-12191
▁빌려서라도	-12192
▁뽑아버린다	-12193
▁사다주세요	-12194
▁사무실에서	-12195
▁사실이잖아	-12196
▁사야하는데	-12197
▁살겠습니다	-12198
▁살고싶으면	-12199
▁생각해보고	-12200
▁생각했는데	-12201
▁샤인머스켓	-12202
▁수업시간에	-12203
▁스토킹이야	-12204
▁승진해야지	-12205
▁신고할게요	-12206
▁싫다는거야	-12207
▁아니거든요	-12208
▁아니라는데	-12209
▁아르바이트	-12210
▁안타깝지만	-12211
▁알려달라고	-12212
▁알려주세요	-12213
▁알바끝나고	-12214
▁얘기하는데	-12215
▁어쩌라고요	-12216
▁어처구니가	-12217
▁엄마아빠가	-12218
▁업무시간에	-12219
▁없다니까요	-12220
▁없습니다만	-12221
▁없으려니까	-12222
▁여자친구는	-12223
▁역겨우니까	-12224
▁오늘까지는	-12225
▁우리가족은	-12226
▁원장선생님	-12227
▁원하는대로	-12228
▁원하시는게	-12229
▁유튜브에서	-12230
▁이러시는거	-12231
▁이렇게라도	-12232
▁이렇게밖에	-12233
▁이번주까지	-12234
▁일주일동안	-12235
▁잃어버려서	-12236
▁잃어버리면	-12237
▁있으실까요	-12238
▁자랑이라고	-12239
▁잘못해놓고	-12240
▁장난치지마	-12241
▁장사하려면	-12242
▁장애인이라	-12243
▁재미있는데	-12244
▁정신차리게	-12245
▁좋아하는게	-12246
▁죄송한데요	-12247
▁주문번호가	-12248
▁죽어버리면	-12249
▁준비하라고	-12250
▁지켜볼거야	-12251
▁참아주세요	-12252
▁창피하지도	-12253
▁축하드려요	-12254
▁출근시간이	-12255
▁친구들한테	-12256
▁커뮤니티에	-12257
▁프라이버시	-12258
▁프로그래머	-12259
▁프로젝트를	-12260
▁필요하거든	-12261
▁필요합니다	-12262
▁하는거잖아	-12263
▁하셨는데요	-12264
▁해달라니까	-12265
▁해드릴게요	-12266
▁해야되는데	-12267
▁해주셨으면	-12268
▁헛소리하지	-12269
▁협박하시면	-12270
▁후회할텐데	-12271
▁훔쳐서라도	-12272
▁건들지말아줘	-12273
▁경찰부릅니다	-12274
▁괴롭히는거야	-12275
▁구질구질하게	-12276
▁나가겠습니다	-12277
▁남자애들한테	-12278
▁내려놓으세요	-12279
▁내려드릴게요	-12280
▁다음주까지는	-12281
▁말씀드렸어요	-12282
▁말씀드릴거야	-12283
▁말씀드릴게요	-12284
▁말씀하신대로	-12285
▁말아주십시오	-12286
▁무슨상관이야	-12287
▁보내겠습니다	-12288
▁보내드릴게요	-12289
▁부르겠습니다	-12290
▁불가능합니다	-12291
▁사주신거에요	-12292
▁살려만주세요	-12293
▁생각해보니까	-12294
▁생각해볼께요	-12295
▁소리하지말고	-12296
▁신고할거예요	-12297
▁아닌거같은데	-12298
▁알고있습니다	-12299
▁야근해서라도	-12300
▁올리겠습니다	-12301
▁입금해주세요	-12302
▁죽어버릴꺼야	-12303
▁짜증나게하네	-12304
▁감사하겠습니다	-12305
▁구해보겠습니다	-12306
▁말씀드렸습니다	-12307
▁못하겠다는거야	-12308
▁뭐하시는거에요	-12309
▁신경쓰겠습니다	-12310
▁왜그러시는데요	-12311
▁우리아이에게는	-12312
▁교육시키겠습니다	-12313
▁보내드리겠습니다	-12314
▁협박하시는건가요	-12315
▁갱	-12316
▁깠	-12317
▁껍	-12318
▁꽁	-12319
▁됏	-12320
▁떵	-12321
▁뚜	-12322
▁랭	-12323
▁려	-12324
▁룸	-12325
▁류	-12326
▁빻	-12327
▁삿	-12328
▁솥	-12329
▁쇠	-12330
▁쉐	-12331
▁쉴	-12332
▁슉	-12333
▁앤	-12334
▁얹	-12335
▁졌	-12336
▁쪘	-12337
▁찝	-12338
▁찰	-12339
▁칸	-12340
▁큭	-12341
▁턴	-12342
▁툭	-12343
▁향	-12344
▁훈	-12345
가기	-12346
가냐	-12347
가네	-12348
가능	-12349
가다	-12350
가로	-12351
각서	-12352
갈까	-12353
갈지	-12354
감당	-12355
갔냐	-12356
같음	-12357
갠데	-12358
거에	-12359
건들	-12360
건물	-12361
건실	-12362
걸고	-12363
걸세	-12364
것을	-12365
게임	-12366
겐가	-12367
겟다	-12368
겠단	-12369
경찰	-12370
계에	-12371
고만	-12372
과류	-12373
과에	-12374
관님	-12375
관에	-12376
구네	-12377
구니	-12378
구절	-12379
국에	-12380
권은	-12381
그랬	-12382
그려	-12383
그리	-12384
근이	-12385
근질	-12386
근차	-12387
글도	-12388
금도	-12389
금은	-12390
금을	-12391
기술	-12392
기씨	-12393
기엔	-12394
기자	-12395
꺼는	-12396
꺼랑	-12397
꺼리	-12398
껄여	-12399
껏도	-12400
끼가	-12401
나도	-12402
나리	-12403
나씨	-12404
나야	-12405
난게	-12406
난단	-12407
남편	-12408
났다	-12409
내기	-12410
내려	-12411
내역	-12412
냐구	-12413
너는	-12414
놈은	-12415
놓을	-12416
놔요	-12417
놨냐	-12418
느냐	-12419
는군	-12420
능아	-12421
니어	-12422
다냐	-12423
다네	-12424
단다	-12425
달고	-12426
당에	-12427
대서	-12428
대야	-12429
대응	-12430
더군	-12431
덕한	-12432
데도	-12433
데로	-12434
데체	-12435
도장	-12436
동강	-12437
동자	-12438
됐고	-12439
됐지	-12440
되냐	-12441
되니	-12442
되죠	-12443
두는	-12444
둘러	-12445
둘이	-12446
드냐	-12447
드니	-12448
득이	-12449
들에	-12450
딱지	-12451
땅은	-12452
때만	-12453
뚝뚝	-12454
뜨고	-12455
랬죠	-12456
러도	-12457
런가	-12458
렌즈	-12459
로우	-12460
로운	-12461
론만	-12462
료에	-12463
률이	-12464
르기	-12465
린줄	-12466
마워	-12467
만해	-12468
많이	-12469
말게	-12470
말곤	-12471
말구	-12472
말든	-12473
말서	-12474
망정	-12475
맞냐	-12476
맞자	-12477
맹점	-12478
먹냐	-12479
면제	-12480
모로	-12481
모아	-12482
목이	-12483
못할	-12484
물건	-12485
미니	-12486
미도	-12487
믿고	-12488
바보	-12489
반하	-12490
버는	-12491
버무	-12492
버스	-12493
벌레	-12494
보가	-12495
보나	-12496
보실	-12497
볶음	-12498
볼께	-12499
봤다	-12500
부시	-12501
분위	-12502
분은	-12503
분을	-12504
블러	-12505
비야	-12506
비어	-12507
비에	-12508
빵도	-12509
뿐인	-12510
사들	-12511
사랑	-12512
새꺄	-12513
새를	-12514
석도	-12515
석을	-12516
성도	-12517
세네	-12518
센티	-12519
셔츠	-12520
셨나	-12521
소니	-12522
소사	-12523
수술	-12524
수저	-12525
숙제	-12526
순간	-12527
순한	-12528
쉽게	-12529
스러	-12530
스비	-12531
스야	-12532
스팟	-12533
승진	-12534
시길	-12535
시로	-12536
시작	-12537
시절	-12538
신건	-12539
신경	-12540
신을	-12541
신의	-12542
신히	-12543
실력	-12544
심사	-12545
심칩	-12546
심한	-12547
쓰김	-12548
쓰레	-12549
쓰지	-12550
씨방	-12551
씩만	-12552
아까	-12553
아나	-12554
아침	-12555
악을	-12556
안테	-12557
알바	-12558
았니	-12559
애설	-12560
약한	-12561
얘기	-12562
어담	-12563
어때	-12564
어빵	-12565
어이	-12566
언니	-12567
없죠	-12568
에만	-12569
에에	-12570
여나	-12571
연한	-12572
열면	-12573
였니	-12574
였음	-12575
오가	-12576
오래	-12577
오물	-12578
올께	-12579
왔나	-12580
왔니	-12581
용품	-12582
우냐	-12583
우님	-12584
우뚱	-12585
웃어	-12586
원도	-12587
원들	-12588
원씨	-12589
원칙	-12590
으나	-12591
으래	-12592
으며	-12593
은망	-12594
의의	-12595
이건	-12596
이병	-12597
이봐	-12598
이팅	-12599
인건	-12600
인걸	-12601
인씨	-12602
인아	-12603
인은	-12604
인의	-12605
인척	-12606
일과	-12607
일까	-12608
일수	-12609
일한	-12610
임당	-12611
입은	-12612
있었	-12613
있으	-12614
자국	-12615
자금	-12616
자지	-12617
작성	-12618
잖냐	-12619
잠깐	-12620
잣집	-12621
장해	-12622
장히	-12623
저귀	-12624
저나	-12625
저래	-12626
적은	-12627
점을	-12628
점이	-12629
정돈	-12630
정씨	-12631
제불	-12632
져도	-12633
졌나	-12634
졌지	-12635
조림	-12636
조심	-12637
좀봐	-12638
주니	-12639
주로	-12640
주마	-12641
주사	-12642
주얼	-12643
죽어	-12644
죽이	-12645
준게	-12646
준씨	-12647
줄근	-12648
중엔	-12649
줬지	-12650
쥐마	-12651
증나	-12652
지간	-12653
지다	-12654
지에	-12655
지차	-12656
지켜	-12657
진게	-12658
질래	-12659
쪽팔	-12660
찌검	-12661
참에	-12662
창고	-12663
처녀	-12664
천길	-12665
천에	-12666
체를	-12667
치다	-12668
치도	-12669
치미	-12670
케키	-12671
콜릿	-12672
키면	-12673
탓을	-12674
탕이	-12675
태워	-12676
터로	-12677
테이	-12678
토리	-12679
통장	-12680
팔아	-12681
평아	-12682
포자	-12683
플러	-12684
하구	-12685
하군	-12686
하대	-12687
하야	-12688
하진	-12689
할것	-12690
함이	-12691
해놓	-12692
해를	-12693
햇지	-12694
헤이	-12695
호감	-12696
호박	-12697
환을	-12698
후배	-12699
훈이	-12700
흐흐	-12701
▁가긴	-12702
▁가냐	-12703
▁가벼	-12704
▁가셨	-12705
▁가식	-12706
▁가줘	-12707
▁가천	-12708
▁간도	-12709
▁간섭	-12710
▁갈수	-12711
▁갑갑	-12712
▁갑질	-12713
▁갔을	-12714
▁같긴	-12715
▁같어	-12716
▁같을	-12717
▁같잖	-12718
▁개를	-12719
▁걔랑	-12720
▁거네	-12721
▁거는	-12722
▁거봐	-12723
▁건든	-12724
▁건설	-12725
▁건은	-12726
▁걸고	-12727
▁걸었	-12728
▁걸지	-12729
▁것들	-12730
▁것아	-12731
▁게을	-12732
▁겠네	-12733
▁겠어	-12734
▁견학	-12735
▁겸손	-12736
▁경우	-12737
▁계발	-12738
▁계셨	-12739
▁고급	-12740
▁고등	-12741
▁고시	-12742
▁고약	-12743
▁고의	-12744
▁고추	-12745
▁고프	-12746
▁공동	-12747
▁공원	-12748
▁공중	-12749
▁과민	-12750
▁괜한	-12751
▁교과	-12752
▁교수	-12753
▁교양	-12754
▁구더	-12755
▁구만	-12756
▁구체	-12757
▁구할	-12758
▁국회	-12759
▁굴면	-12760
▁권력	-12761
▁귀는	-12762
▁그녀	-12763
▁그랫	-12764
▁그럽	-12765
▁그마	-12766
▁그새	-12767
▁그집	-12768
▁근질	-12769
▁글지	-12770
▁금니	-12771
▁금연	-12772
▁금칠	-12773
▁급식	-12774
▁급여	-12775
▁기능	-12776
▁기르	-12777
▁기름	-12778
▁기범	-12779
▁기합	-12780
▁긴팔	-12781
▁길고	-12782
▁길에	-12783
▁김쌤	-12784
▁김유	-12785
▁깁스	-12786
▁까다	-12787
▁까딱	-12788
▁까매	-12789
▁까짓	-12790
▁깐깐	-12791
▁깐부	-12792
▁깔깔	-12793
▁깜깜	-12794
▁깜짝	-12795
▁꺼줘	-12796
▁껌값	-12797
▁께서	-12798
▁꼬시	-12799
▁꽉막	-12800
▁꿇어	-12801
▁끄면	-12802
▁끊을	-12803
▁끝장	-12804
▁낄낄	-12805
▁나댔	-12806
▁나좋	-12807
▁날까	-12808
▁날라	-12809
▁남에	-12810
▁남탓	-12811
▁내뱉	-12812
▁내봐	-12813
▁내서	-12814
▁내성	-12815
▁내신	-12816
▁내욕	-12817
▁내입	-12818
▁내자	-12819
▁내줘	-12820
▁내지	-12821
▁내쫓	-12822
▁내키	-12823
▁냈지	-12824
▁너내	-12825
▁너넨	-12826
▁넣을	-12827
▁노출	-12828
▁논다	-12829
▁놀까	-12830
▁놀랐	-12831
▁놀래	-12832
▁놀지	-12833
▁놈년	-12834
▁농약	-12835
▁놓지	-12836
▁뇌가	-12837
▁눈물	-12838
▁눌렀	-12839
▁느그	-12840
▁느낀	-12841
▁니놈	-12842
▁다는	-12843
▁닦고	-12844
▁단계	-12845
▁단합	-12846
▁닫아	-12847
▁달도	-12848
▁달래	-12849
▁달은	-12850
▁달지	-12851
▁담궈	-12852
▁담엔	-12853
▁당사	-12854
▁대구	-12855
▁대수	-12856
▁대포	-12857
▁댁이	-12858
▁더욱	-12859
▁더줘	-12860
▁던지	-12861
▁덜렁	-12862
▁도끼	-12863
▁도우	-12864
▁도울	-12865
▁도통	-12866
▁독단	-12867
▁독서	-12868
▁독이	-12869
▁돈에	-12870
▁동국	-12871
▁동그	-12872
▁동동	-12873
▁돼야	-12874
▁되서	-12875
▁되었	-12876
▁됬고	-12877
▁두둑	-12878
▁두렵	-12879
▁두잔	-12880
▁둘러	-12881
▁든거	-12882
▁듣게	-12883
▁들켰	-12884
▁등골	-12885
▁등에	-12886
▁따끔	-12887
▁따른	-12888
▁딸만	-12889
▁때를	-12890
▁떠날	-12891
▁떠와	-12892
▁떵떵	-12893
▁또또	-12894
▁또라	-12895
▁또요	-12896
▁똥은	-12897
▁뚫어	-12898
▁뛰게	-12899
▁띄지	-12900
▁띠껍	-12901
▁라는	-12902
▁랭킹	-12903
▁루머	-12904
▁마디	-12905
▁마땅	-12906
▁마요	-12907
▁마치	-12908
▁막으	-12909
▁막장	-12910
▁많냐	-12911
▁많어	-12912
▁많지	-12913
▁말단	-12914
▁망친	-12915
▁맞긴	-12916
▁맞나	-12917
▁맞음	-12918
▁맞추	-12919
▁맡길	-12920
▁맡은	-12921
▁머고	-12922
▁먹던	-12923
▁먹방	-12924
▁먹칠	-12925
▁메주	-12926
▁며늘	-12927
▁명씩	-12928
▁명은	-12929
▁명이	-12930
▁몇반	-12931
▁몇십	-12932
▁몇일	-12933
▁모야	-12934
▁모여	-12935
▁몰고	-12936
▁몸살	-12937
▁못난	-12938
▁못보	-12939
▁못봐	-12940
▁못쉬	-12941
▁못오	-12942
▁못피	-12943
▁몽골	-12944
▁묶고	-12945
▁문닫	-12946
▁문란	-12947
▁문서	-12948
▁문을	-12949
▁문화	-12950
▁물흐	-12951
▁뭐죠	-12952
▁미미	-12953
▁미워	-12954
▁미진	-12955
▁미혼	-12956
▁미흡	-12957
▁믿기	-12958
▁믿는	-12959
▁박차	-12960
▁반납	-12961
▁반만	-12962
▁반에	-12963
▁발목	-12964
▁발색	-12965
▁발생	-12966
▁발이	-12967
▁밟아	-12968
▁밤을	-12969
▁밤이	-12970
▁밥만	-12971
▁밥상	-12972
▁방도	-12973
▁방문	-12974
▁방아	-12975
▁배는	-12976
▁배를	-12977
▁배짱	-12978
▁배째	-12979
▁배탈	-12980
▁백신	-12981
▁뱃살	-12982
▁벅차	-12983
▁번의	-12984
▁벌려	-12985
▁법도	-12986
▁법카	-12987
▁벗고	-12988
▁벽에	-12989
▁별명	-12990
▁보살	-12991
▁보아	-12992
▁보일	-12993
▁볼래	-12994
▁볼만	-12995
▁볼일	-12996
▁봉사	-12997
▁뵈는	-12998
▁부려	-12999
▁부어	-13000
▁부킹	-13001
▁북한	-13002
▁분만	-13003
▁분배	-13004
▁분식	-13005
▁분실	-13006
▁불리	-13007
▁불붙	-13008
▁불안	-13009
▁불지	-13010
▁불합	-13011
▁비열	-13012
▁비우	-13013
▁빌어	-13014
▁빨고	-13015
▁빨대	-13016
▁빵꾸	-13017
▁빵사	-13018
▁빼요	-13019
▁뺀질	-13020
▁뺏는	-13021
▁뽀뽀	-13022
▁뽑고	-13023
▁뽑을	-13024
▁뽑자	-13025
▁뿌린	-13026
▁사게	-13027
▁사겨	-13028
▁사내	-13029
▁사본	-13030
▁사연	-13031
▁사위	-13032
▁사적	-13033
▁사퇴	-13034
▁살림	-13035
▁살벌	-13036
▁살수	-13037
▁살어	-13038
▁상가	-13039
▁상납	-13040
▁상자	-13041
▁상한	-13042
▁생김	-13043
▁섞인	-13044
▁선을	-13045
▁설렁	-13046
▁설사	-13047
▁성사	-13048
▁성실	-13049
▁성주	-13050
▁세개	-13051
▁세요	-13052
▁세팅	-13053
▁센터	-13054
▁셀카	-13055
▁소각	-13056
▁소주	-13057
▁소화	-13058
▁손댔	-13059
▁손세	-13060
▁손좀	-13061
▁손톱	-13062
▁솔로	-13063
▁수당	-13064
▁수리	-13065
▁수명	-13066
▁수사	-13067
▁수수	-13068
▁수습	-13069
▁수족	-13070
▁숨도	-13071
▁숨막	-13072
▁쉽지	-13073
▁스킬	-13074
▁스탑	-13075
▁슬퍼	-13076
▁시내	-13077
▁시대	-13078
▁시선	-13079
▁시중	-13080
▁시청	-13081
▁식은	-13082
▁신세	-13083
▁신혼	-13084
▁싫음	-13085
▁심리	-13086
▁싱글	-13087
▁쌤이	-13088
▁썸남	-13089
▁썼지	-13090
▁쏴서	-13091
▁쓰네	-13092
▁쓰다	-13093
▁쓰라	-13094
▁쓰려	-13095
▁씹냐	-13096
▁씻어	-13097
▁아티	-13098
▁아하	-13099
▁안갈	-13100
▁안낸	-13101
▁안냈	-13102
▁안든	-13103
▁안떠	-13104
▁안만	-13105
▁안무	-13106
▁안심	-13107
▁안싸	-13108
▁안쓸	-13109
▁안울	-13110
▁안틀	-13111
▁안풀	-13112
▁안피	-13113
▁안힘	-13114
▁앉을	-13115
▁않어	-13116
▁않죠	-13117
▁알기	-13118
▁알꺼	-13119
▁알몸	-13120
▁알수	-13121
▁알짱	-13122
▁앞길	-13123
▁앨범	-13124
▁앱을	-13125
▁야무	-13126
▁약도	-13127
▁약먹	-13128
▁약이	-13129
▁양도	-13130
▁얘길	-13131
▁어눌	-13132
▁어따	-13133
▁어마	-13134
▁어으	-13135
▁어짜	-13136
▁얻은	-13137
▁없대	-13138
▁엉엉	-13139
▁에요	-13140
▁에잉	-13141
▁에효	-13142
▁엘레	-13143
▁여럿	-13144
▁여어	-13145
▁연결	-13146
▁연기	-13147
▁연체	-13148
▁영감	-13149
▁영역	-13150
▁옆팀	-13151
▁예상	-13152
▁예진	-13153
▁오나	-13154
▁오락	-13155
▁오랫	-13156
▁오며	-13157
▁오버	-13158
▁오실	-13159
▁오탈	-13160
▁올렸	-13161
▁올바	-13162
▁옳은	-13163
▁옳지	-13164
▁왔나	-13165
▁외에	-13166
▁외출	-13167
▁왼쪽	-13168
▁요양	-13169
▁용기	-13170
▁우냐	-13171
▁웃고	-13172
▁웃는	-13173
▁원도	-13174
▁원영	-13175
▁원참	-13176
▁원치	-13177
▁원해	-13178
▁월차	-13179
▁위급	-13180
▁유감	-13181
▁유언	-13182
▁으어	-13183
▁은근	-13184
▁음침	-13185
▁의료	-13186
▁의식	-13187
▁이내	-13188
▁이렇	-13189
▁이백	-13190
▁이쁨	-13191
▁이송	-13192
▁이수	-13193
▁이식	-13194
▁이요	-13195
▁이쯤	-13196
▁익숙	-13197
▁인계	-13198
▁인데	-13199
▁인원	-13200
▁일개	-13201
▁일년	-13202
▁일억	-13203
▁일의	-13204
▁일인	-13205
▁읽어	-13206
▁잃고	-13207
▁입김	-13208
▁입막	-13209
▁입생	-13210
▁입학	-13211
▁잇냐	-13212
▁잇어	-13213
▁있느	-13214
▁있단	-13215
▁잊어	-13216
▁잊은	-13217
▁자넨	-13218
▁자녀	-13219
▁자는	-13220
▁자랐	-13221
▁자본	-13222
▁자율	-13223
▁자제	-13224
▁자지	-13225
▁자폐	-13226
▁작게	-13227
▁작고	-13228
▁작냐	-13229
▁작품	-13230
▁잘듣	-13231
▁잡는	-13232
▁잡을	-13233
▁장가	-13234
▁장례	-13235
▁장만	-13236
▁장면	-13237
▁재가	-13238
▁재혼	-13239
▁쟤야	-13240
▁저질	-13241
▁적합	-13242
▁적혀	-13243
▁전문	-13244
▁절도	-13245
▁절이	-13246
▁절차	-13247
▁점점	-13248
▁정산	-13249
▁정성	-13250
▁정이	-13251
▁제거	-13252
▁제고	-13253
▁제공	-13254
▁제딸	-13255
▁제안	-13256
▁제외	-13257
▁제형	-13258
▁조는	-13259
▁조사	-13260
▁조절	-13261
▁좀봐	-13262
▁좀해	-13263
▁좁아	-13264
▁종교	-13265
▁종업	-13266
▁좋나	-13267
▁죄는	-13268
▁죄로	-13269
▁주간	-13270
▁주냐	-13271
▁주님	-13272
▁주무	-13273
▁주어	-13274
▁주웠	-13275
▁줄수	-13276
▁줄을	-13277
▁중고	-13278
▁줘도	-13279
▁줬다	-13280
▁지고	-13281
▁지는	-13282
▁지렁	-13283
▁지만	-13284
▁지운	-13285
▁지저	-13286
▁지출	-13287
▁진단	-13288
▁진도	-13289
▁진상	-13290
▁집회	-13291
▁짓이	-13292
▁짜식	-13293
▁짤릴	-13294
▁짧네	-13295
▁짧다	-13296
▁째려	-13297
▁쪄서	-13298
▁쪼끄	-13299
▁쫓겨	-13300
▁찍자	-13301
▁찐빵	-13302
▁찔렀	-13303
▁찝찝	-13304
▁차감	-13305
▁차고	-13306
▁차량	-13307
▁차면	-13308
▁차질	-13309
▁참한	-13310
▁찾는	-13311
▁천호	-13312
▁청결	-13313
▁청년	-13314
▁쳐보	-13315
▁쳐봐	-13316
▁쳤다	-13317
▁초보	-13318
▁총대	-13319
▁총에	-13320
▁출렁	-13321
▁층에	-13322
▁치뤄	-13323
▁치면	-13324
▁치아	-13325
▁치어	-13326
▁치자	-13327
▁치장	-13328
▁치즈	-13329
▁칼빵	-13330
▁칼에	-13331
▁칼이	-13332
▁커버	-13333
▁컨닝	-13334
▁코에	-13335
▁코트	-13336
▁쿵쾅	-13337
▁크다	-13338
▁크면	-13339
▁크흠	-13340
▁큭큭	-13341
▁큰맘	-13342
▁키운	-13343
▁타자	-13344
▁탈모	-13345
▁탈탈	-13346
▁탑승	-13347
▁터질	-13348
▁터치	-13349
▁털고	-13350
▁털끝	-13351
▁털릴	-13352
▁털이	-13353
▁테러	-13354
▁토쏠	-13355
▁통한	-13356
▁통할	-13357
▁통행	-13358
▁퇴출	-13359
▁튕겨	-13360
▁트럭	-13361
▁티가	-13362
▁티를	-13363
▁티어	-13364
▁팀이	-13365
▁팀플	-13366
▁파괴	-13367
▁파티	-13368
▁팍팍	-13369
▁팔고	-13370
▁팔을	-13371
▁패고	-13372
▁패서	-13373
▁퍼진	-13374
▁편한	-13375
▁평범	-13376
▁폭언	-13377
▁폰은	-13378
▁풀리	-13379
▁피치	-13380
▁하러	-13381
▁하마	-13382
▁하진	-13383
▁하청	-13384
▁하필	-13385
▁학급	-13386
▁학점	-13387
▁한강	-13388
▁한눈	-13389
▁한말	-13390
▁한발	-13391
▁한장	-13392
▁한판	-13393
▁할걸	-13394
▁할만	-13395
▁할일	-13396
▁합성	-13397
▁해독	-13398
▁행패	-13399
▁허참	-13400
▁혀가	-13401
▁형민	-13402
▁형수	-13403
▁형은	-13404
▁호랑	-13405
▁호에	-13406
▁홍보	-13407
▁화목	-13408
▁화학	-13409
▁확진	-13410
▁횡단	-13411
▁효도	-13412
▁훔치	-13413
▁휴게	-13414
▁흐흑	-13415
▁흘려	-13416
▁힘을	-13417
가기로	-13418
가다가	-13419
가보다	-13420
가져와	-13421
갑시다	-13422
같다고	-13423
거냐고	-13424
거라서	-13425
거면서	-13426
것같냐	-13427
것들이	-13428
것보다	-13429
것좀봐	-13430
겠으면	-13431
겨야지	-13432
겼는데	-13433
고객님	-13434
관리를	-13435
구절절	-13436
그거고	-13437
그래도	-13438
그러냐	-13439
그만해	-13440
근차근	-13441
급해서	-13442
기나해	-13443
기면서	-13444
기사님	-13445
기인데	-13446
길거야	-13447
까짓게	-13448
꺼아냐	-13449
끄러져	-13450
나가서	-13451
내라고	-13452
는거고	-13453
는거네	-13454
는걸로	-13455
는지는	-13456
는지요	-13457
능력이	-13458
다녀오	-13459
다녀요	-13460
다는거	-13461
다는걸	-13462
다니기	-13463
다더니	-13464
다시피	-13465
달라는	-13466
닮아서	-13467
대리는	-13468
도록해	-13469
돼지야	-13470
됐는데	-13471
될까요	-13472
드라고	-13473
드렸어	-13474
드세요	-13475
들끼리	-13476
들어오	-13477
땡이가	-13478
떨어져	-13479
라그래	-13480
라는게	-13481
라서요	-13482
러운거	-13483
렸는지	-13484
렸다는	-13485
리는거	-13486
리는지	-13487
리라고	-13488
리지만	-13489
립니까	-13490
말게나	-13491
말고는	-13492
머리로	-13493
먹어야	-13494
먹으러	-13495
먹은거	-13496
물이야	-13497
밖으로	-13498
반하장	-13499
받아야	-13500
버릇이	-13501
버릴줄	-13502
벌리고	-13503
보구나	-13504
보기도	-13505
보던지	-13506
보도록	-13507
보려고	-13508
보시지	-13509
보여서	-13510
보이네	-13511
본거야	-13512
본적도	-13513
볼까요	-13514
봐야돼	-13515
부리지	-13516
부에서	-13517
부탁해	-13518
분들이	-13519
분위기	-13520
비인데	-13521
빌려줘	-13522
빠져서	-13523
뿐인데	-13524
사람들	-13525
사오고	-13526
사원은	-13527
사원이	-13528
사진을	-13529
사항이	-13530
상이야	-13531
상하게	-13532
생각은	-13533
생각을	-13534
생활도	-13535
서비스	-13536
석이야	-13537
센티브	-13538
소하게	-13539
수있게	-13540
수있니	-13541
숟가락	-13542
스럽네	-13543
습네다	-13544
시까지	-13545
시는게	-13546
시다고	-13547
시키는	-13548
신거야	-13549
신다는	-13550
썼는데	-13551
씩이나	-13552
아는데	-13553
아야죠	-13554
아이가	-13555
아침에	-13556
안돼요	-13557
안했어	-13558
않으면	-13559
았자나	-13560
어디서	-13561
엄마가	-13562
엄마는	-13563
업체에	-13564
에게도	-13565
에서만	-13566
오는거	-13567
오든지	-13568
왔던데	-13569
운가봐	-13570
으신데	-13571
은데요	-13572
음으로	-13573
이기도	-13574
이라뇨	-13575
이셔서	-13576
이야기	-13577
인이신	-13578
인지는	-13579
인지도	-13580
일이긴	-13581
일인가	-13582
일텐데	-13583
입은거	-13584
있나요	-13585
있는게	-13586
있다가	-13587
자체가	-13588
장애인	-13589
장한테	-13590
전부터	-13591
점에서	-13592
져봐야	-13593
조차도	-13594
주도록	-13595
주시지	-13596
주엄마	-13597
죽이고	-13598
준건데	-13599
줄거면	-13600
줄꺼면	-13601
중이라	-13602
줘야돼	-13603
줬던거	-13604
지니까	-13605
지도록	-13606
지않나	-13607
지알아	-13608
집니다	-13609
짜증나	-13610
차하면	-13611
쳐먹고	-13612
치니까	-13613
치워도	-13614
친다고	-13615
태니까	-13616
테니가	-13617
텐데요	-13618
통수를	-13619
틀리면	-13620
팀장이	-13621
파악이	-13622
품으로	-13623
하게도	-13624
하겠니	-13625
하고만	-13626
하구요	-13627
하길래	-13628
하던가	-13629
하셔도	-13630
하셔야	-13631
하신데	-13632
하자는	-13633
하지가	-13634
하지는	-13635
한거란	-13636
한다니	-13637
할거면	-13638
할테니	-13639
해버릴	-13640
해야할	-13641
해주면	-13642
해줘요	-13643
했네요	-13644
했다가	-13645
했다간	-13646
했다는	-13647
했더라	-13648
했지만	-13649
▁가는게	-13650
▁가맹점	-13651
▁가면서	-13652
▁가야할	-13653
▁가있어	-13654
▁가정사	-13655
▁가줄래	-13656
▁가치가	-13657
▁각서에	-13658
▁간단한	-13659
▁간신히	-13660
▁갈건데	-13661
▁갈께요	-13662
▁갈비뼈	-13663
▁감독님	-13664
▁감방에	-13665
▁감자가	-13666
▁감정은	-13667
▁감정이	-13668
▁갑이고	-13669
▁갔는지	-13670
▁같더라	-13671
▁같은거	-13672
▁같이가	-13673
▁같잖아	-13674
▁갚겠다	-13675
▁개같이	-13676
▁개념이	-13677
▁개무시	-13678
▁개밖에	-13679
▁개인사	-13680
▁개자식	-13681
▁개처럼	-13682
▁거겠냐	-13683
▁거겠지	-13684
▁거기가	-13685
▁거기지	-13686
▁거는거	-13687
▁거슬려	-13688
▁거였네	-13689
▁거울도	-13690
▁거지같	-13691
▁거지로	-13692
▁거칠게	-13693
▁걱정은	-13694
▁건드릴	-13695
▁걷는거	-13696
▁걸리는	-13697
▁걸어봐	-13698
▁검은색	-13699
▁것으로	-13700
▁견과류	-13701
▁결과가	-13702
▁결과로	-13703
▁결정해	-13704
▁결혼은	-13705
▁경고야	-13706
▁경우가	-13707
▁경찰도	-13708
▁계시지	-13709
▁고개도	-13710
▁고기가	-13711
▁고모가	-13712
▁고생이	-13713
▁고아인	-13714
▁고졸이	-13715
▁고치고	-13716
▁고통받	-13717
▁골프채	-13718
▁곳인데	-13719
▁공기밥	-13720
▁공무원	-13721
▁공부나	-13722
▁공부못	-13723
▁공지가	-13724
▁관계가	-13725
▁관리도	-13726
▁관심이	-13727
▁괜찮게	-13728
▁괜찮고	-13729
▁괴로워	-13730
▁교시에	-13731
▁구라를	-13732
▁구매가	-13733
▁구석이	-13734
▁구세요	-13735
▁구역질	-13736
▁구제불	-13737
▁구하기	-13738
▁구하면	-13739
▁구해서	-13740
▁구해요	-13741
▁국물이	-13742
▁군대에	-13743
▁굼벵이	-13744
▁권한이	-13745
▁그날은	-13746
▁그냥은	-13747
▁그때고	-13748
▁그래너	-13749
▁그래봐	-13750
▁그랬던	-13751
▁그러셔	-13752
▁그러죠	-13753
▁그러진	-13754
▁그런다	-13755
▁그런일	-13756
▁그런짓	-13757
▁그말을	-13758
▁그사람	-13759
▁그정돈	-13760
▁글렀어	-13761
▁글씨가	-13762
▁글씨체	-13763
▁급한거	-13764
▁기간은	-13765
▁기다린	-13766
▁기달려	-13767
▁기절놀	-13768
▁기철아	-13769
▁기회야	-13770
▁기획표	-13771
▁길거리	-13772
▁김실장	-13773
▁까불어	-13774
▁까야지	-13775
▁깔끔히	-13776
▁깝치네	-13777
▁꺼져요	-13778
▁꼬맹아	-13779
▁꼬맹이	-13780
▁꼬이고	-13781
▁꾸며라	-13782
▁끄세요	-13783
▁끝나는	-13784
▁끝나지	-13785
▁나가기	-13786
▁나가지	-13787
▁나갔나	-13788
▁나같음	-13789
▁나대긴	-13790
▁나라고	-13791
▁나무가	-13792
▁나무야	-13793
▁나빠서	-13794
▁나빠요	-13795
▁나쁜건	-13796
▁나쁜놈	-13797
▁나쁜짓	-13798
▁나사가	-13799
▁나씨가	-13800
▁나왔나	-13801
▁나한텐	-13802
▁날인거	-13803
▁남길씨	-13804
▁남는거	-13805
▁남는게	-13806
▁남들은	-13807
▁남아라	-13808
▁남았네	-13809
▁남았다	-13810
▁남았어	-13811
▁남은거	-13812
▁남자인	-13813
▁낫겠다	-13814
▁났는데	-13815
▁낮아서	-13816
▁낮은데	-13817
▁내꺼랑	-13818
▁내껀데	-13819
▁내는거	-13820
▁내려갈	-13821
▁내려라	-13822
▁내려봐	-13823
▁내볼까	-13824
▁내부고	-13825
▁내비둬	-13826
▁내알바	-13827
▁내용도	-13828
▁내줘라	-13829
▁너거기	-13830
▁너뿐만	-13831
▁너한텐	-13832
▁너희들	-13833
▁너희집	-13834
▁넘기고	-13835
▁넘기는	-13836
▁넣어서	-13837
▁넥타이	-13838
▁노인네	-13839
▁노처녀	-13840
▁논리가	-13841
▁놀거야	-13842
▁놀러와	-13843
▁놀아주	-13844
▁놈들은	-13845
▁놈들이	-13846
▁놈이랑	-13847
▁농담도	-13848
▁놓을래	-13849
▁누르면	-13850
▁누워만	-13851
▁눈깔이	-13852
▁눈동자	-13853
▁눈치채	-13854
▁느리고	-13855
▁늘었네	-13856
▁니네형	-13857
▁니사정	-13858
▁니한테	-13859
▁다내놔	-13860
▁다다음	-13861
▁다른걸	-13862
▁다른게	-13863
▁다른반	-13864
▁다른팀	-13865
▁다물면	-13866
▁	-13867
.	-13868
?	-13869
이	-13870
어	-13871
아	-13872
가	-13873
다	-13874
니	-13875
해	-13876
고	-13877
는	-13878
그	-13879
지	-13880
하	-13881
요	-13882
야	-13883
나	-13884
거	-13885
에	-13886
게	-13887
서	-13888
도	-13889
주	-13890
말	-13891
리	-13892
내	-13893
기	-13894
,	-13895
네	-13896
사	-13897
너	-13898
로	-13899
라	-13900
면	-13901
만	-13902
자	-13903
한	-13904
좋	-13905
데	-13906
안	-13907
응	-13908
제	-13909
일	-13910
있	-13911
들	-13912
시	-13913
!	-13914
은	-13915
까	-13916
뭐	-13917
보	-13918
을	-13919
마	-13920
구	-13921
무	-13922
여	-13923
래	-13924
오	-13925
저	-13926
정	-13927
려	-13928
없	-13929
으	-13930
러	-13931
겠	-13932
장	-13933
생	-13934
대	-13935
세	-13936
진	-13937
친	-13938
왜	-13939
랑	-13940
알	-13941
부	-13942
신	-13943
님	-13944
번	-13945
할	-13946
같	-13947
인	-13948
화	-13949
때	-13950
금	-13951
습	-13952
좀	-13953
못	-13954
했	-13955
잘	-13956
봐	-13957
건	-13958
영	-13959
돈	-13960
미	-13961
동	-13962
수	-13963
냐	-13964
송	-13965
죄	-13966
우	-13967
를	-13968
합	-13969
원	-13970
짜	-13971
었	-13972
와	-13973
잖	-13974
죽	-13975
테	-13976
상	-13977
렇	-13978
운	-13979
것	-13980
식	-13981
스	-13982
음	-13983
행	-13984
모	-13985
되	-13986
먹	-13987
비	-13988
새	-13989
줄	-13990
더	-13991
런	-13992
발	-13993
슨	-13994
소	-13995
전	-13996
돼	-13997
늘	-13998
드	-13999
씨	-14000
줘	-14001
람	-14002
많	-14003
워	-14004
집	-14005
싶	-14006
바	-14007
럼	-14008
져	-14009
디	-14010
버	-14011
학	-14012
간	-14013
당	-14014
히	-14015
회	-14016
애	-14017
적	-14018
걸	-14019
냥	-14020
치	-14021
맞	-14022
머	-14023
살	-14024
과	-14025
직	-14026
날	-14027
심	-14028
각	-14029
분	-14030
계	-14031
근	-14032
난	-14033
입	-14034
족	-14035
피	-14036
매	-14037
끼	-14038
릴	-14039
선	-14040
연	-14041
의	-14042
르	-14043
산	-14044
차	-14045
본	-14046
봤	-14047
불	-14048
조	-14049
셔	-14050
갈	-14051
교	-14052
달	-14053
얼	-14054
따	-14055
문	-14056
않	-14057
누	-14058
방	-14059
빨	-14060
배	-14061
남	-14062
싫	-14063
감	-14064
른	-14065
았	-14066
쳐	-14067
떻	-14068
재	-14069
얘	-14070
찍	-14071
준	-14072
언	-14073
중	-14074
빌	-14075
실	-14076
받	-14077
죠	-14078
개	-14079
관	-14080
녀	-14081
빠	-14082
경	-14083
유	-14084
던	-14085
김	-14086
트	-14087
든	-14088
왔	-14089
공	-14090
활	-14091
예	-14092
속	-14093
타	-14094
임	-14095
손	-14096
책	-14097
터	-14098
업	-14099
취	-14100
엄	-14101
두	-14102
물	-14103
년	-14104
형	-14105
겨	-14106
올	-14107
놔	-14108
작	-14109
침	-14110
점	-14111
처	-14112
희	-14113
꺼	-14114
휴	-14115
넌	-14116
용	-14117
돌	-14118
박	-14119
귀	-14120
린	-14121
셨	-14122
편	-14123
눈	-14124
추	-14125
끝	-14126
등	-14127
락	-14128
갑	-14129
쓰	-14130
긴	-14131
단	-14132
크	-14133
갔	-14134
뭘	-14135
절	-14136
길	-14137
떤	-14138
닌	-14139
참	-14140
됐	-14141
커	-14142
약	-14143
씀	-14144
위	-14145
최	-14146
름	-14147
앞	-14148
질	-14149
볼	-14150
성	-14151
꾸	-14152
울	-14153
렸	-14154
열	-14155
월	-14156
키	-14157
필	-14158
될	-14159
놓	-14160
웃	-14161
닙	-14162
양	-14163
읽	-14164
파	-14165
체	-14166
쉬	-14167
악	-14168
림	-14169
뒤	-14170
밥	-14171
션	-14172
민	-14173
혼	-14174
십	-14175
병	-14176
즐	-14177
굴	-14178
탁	-14179
힘	-14180
몰	-14181
즘	-14182
급	-14183
카	-14184
뭔	-14185
싸	-14186
반	-14187
쳤	-14188
또	-14189
똑	-14190
밖	-14191
짓	-14192
담	-14193
노	-14194
레	-14195
졌	-14196
깐	-14197
써	-14198
목	-14199
켜	-14200
놀	-14201
억	-14202
럽	-14203
밌	-14204
프	-14205
겼	-14206
쁘	-14207
넘	-14208
명	-14209
께	-14210
잠	-14211
루	-14212
딸	-14213
맛	-14214
호	-14215
났	-14216
결	-14217
막	-14218
국	-14219
력	-14220
증	-14221
평	-14222
딱	-14223
특	-14224
답	-14225
통	-14226
팀	-14227
강	-14228
온	-14229
벌	-14230
료	-14231
설	-14232
녁	-14233
놈	-14234
갚	-14235
된	-14236
옷	-14237
줬	-14238
확	-14239
환	-14240
맨	-14241
몇	-14242
며	-14243
외	-14244
찌	-14245
험	-14246
꼭	-14247
코	-14248
망	-14249
겁	-14250
럴	-14251
획	-14252
출	-14253
찰	-14254
큰	-14255
헤	-14256
팔	-14257
풀	-14258
군	-14259
청	-14260
혹	-14261
칼	-14262
토	-14263
객	-14264
복	-14265
메	-14266
밤	-14267
괜	-14268
란	-14269
꼬	-14270
듣	-14271
잡	-14272
찾	-14273
뻔	-14274
포	-14275
별	-14276
냄	-14277
눅	-14278
몸	-14279
찮	-14280
느	-14281
랬	-14282
권	-14283
믿	-14284
허	-14285
술	-14286
태	-14287
녕	-14288
퇴	-14289
먼	-14290
숨	-14291
창	-14292
챙	-14293
잔	-14294
록	-14295
폰	-14296
맑	-14297
현	-14298
둘	-14299
역	-14300
축	-14301
쪽	-14302
플	-14303
후	-14304
랐	-14305
천	-14306
끄	-14307
멀	-14308
쁜	-14309
걷	-14310
승	-14311
웠	-14312
쩌	-14313
능	-14314
광	-14315
액	-14316
법	-14317
페	-14318
협	-14319
빼	-14320
쩔	-14321
초	-14322
글	-14323
넷	-14324
엔	-14325
였	-14326
탐	-14327
힐	-14328
혀	-14329
육	-14330
텐	-14331
석	-14332
쟤	-14333
즈	-14334
꼴	-14335
품	-14336
떡	-14337
뽑	-14338
케	-14339
떨	-14340
링	-14341
척	-14342
닥	-14343
둬	-14344
맘	-14345
짐	-14346
높	-14347
순	-14348
째	-14349
괴	-14350
쾌	-14351
딴	-14352
뚱	-14353
뜨	-14354
욕	-14355
풍	-14356
춤	-14357
완	-14358
틀	-14359
딨	-14360
찐	-14361
널	-14362
빵	-14363
롭	-14364
밀	-14365
셉	-14366
쌌	-14367
백	-14368
빴	-14369
티	-14370
팝	-14371
늦	-14372
표	-14373
존	-14374
깅	-14375
튼	-14376
격	-14377
릭	-14378
립	-14379
쓸	-14380
묘	-14381
빔	-14382
갖	-14383
땠	-14384
뿐	-14385
줌	-14386
함	-14387
곳	-14388
컨	-14389
햇	-14390
움	-14391
헬	-14392
착	-14393
황	-14394
칠	-14395
깔	-14396
골	-14397
충	-14398
뇨	-14399
씩	-14400
종	-14401
판	-14402
곤	-14403
철	-14404
됩	-14405
곧	-14406
폭	-14407
변	-14408
패	-14409
쌍	-14410
볕	-14411
깨	-14412
낼	-14413
넣	-14414
접	-14415
흑	-14416
닐	-14417
쯧	-14418
값	-14419
항	-14420
냈	-14421
턴	-14422
털	-14423
멍	-14424
붙	-14425
옆	-14426
큼	-14427
맡	-14428
낸	-14429
범	-14430
궁	-14431
색	-14432
류	-14433
걱	-14434
졸	-14435
섭	-14436
채	-14437
독	-14438
샀	-14439
쓴	-14440
택	-14441
떠	-14442
뛰	-14443
찔	-14444
총	-14445
규	-14446
랜	-14447
땐	-14448
킨	-14449
퍼	-14450
핸	-14451
랄	-14452
슬	-14453
꿔	-14454
듯	-14455
렵	-14456
왕	-14457
땡	-14458
떼	-14459
삼	-14460
솔	-14461
싼	-14462
썼	-14463
앉	-14464
숙	-14465
씻	-14466
좌	-14467
춰	-14468
투	-14469
걔	-14470
벗	-14471
옥	-14472
잃	-14473
찬	-14474
견	-14475
련	-14476
싹	-14477
흐	-14478
검	-14479
론	-14480
쉽	-14481
젝	-14482
핑	-14483
엉	-14484
젊	-14485
빡	-14486
팅	-14487
헛	-14488
넵	-14489
뻐	-14490
뿌	-14491
젠	-14492
깝	-14493
뜻	-14494
놨	-14495
묻	-14496
짝	-14497
끊	-14498
껴	-14499
끔	-14500
센	-14501
쎄	-14502
쥐	-14503
꿀	-14504
낳	-14505
덕	-14506
둔	-14507
렀	-14508
례	-14509
폐	-14510
봉	-14511
농	-14512
뒷	-14513
땅	-14514
쇼	-14515
탈	-14516
헐	-14517
닮	-14518
멋	-14519
뺏	-14520
윽	-14521
튀	-14522
혜	-14523
훔	-14524
딜	-14525
앗	-14526
탕	-14527
혔	-14528
깜	-14529
납	-14530
낮	-14531
령	-14532
맙	-14533
윗	-14534
픈	-14535
썩	-14536
쪼	-14537
꺄	-14538
덜	-14539
둑	-14540
멈	-14541
짤	-14542
찢	-14543
촌	-14544
킬	-14545
북	-14546
엇	-14547
옮	-14548
잊	-14549
징	-14550
쨌	-14551
킹	-14552
홍	-14553
윤	-14554
쭈	-14555
켰	-14556
톡	-14557
껏	-14558
릿	-14559
밝	-14560
베	-14561
벽	-14562
블	-14563
익	-14564
쟁	-14565
탄	-14566
끗	-14567
잇	-14568
짧	-14569
푸	-14570
브	-14571
슴	-14572
암	-14573
컴	-14574
녔	-14575
뚝	-14576
쩡	-14577
탓	-14578
끌	-14579
늙	-14580
둥	-14581
밑	-14582
향	-14583
겟	-14584
낙	-14585
삭	-14586
걍	-14587
딘	-14588
량	-14589
쌤	-14590
쩐	-14591
퓨	-14592
겹	-14593
긋	-14594
꽤	-14595
녹	-14596
눠	-14597
벼	-14598
쏴	-14599
염	-14600
퍽	-14601
덩	-14602
뜯	-14603
낫	-14604
냅	-14605
닦	-14606
똥	-14607
릎	-14608
쫓	-14609
콩	-14610
쿵	-14611
껀	-14612
띄	-14613
벨	-14614
빈	-14615
얌	-14616
칙	-14617
푼	-14618
헉	-14619
껄	-14620
논	-14621
뉴	-14622
딩	-14623
롱	-14624
룩	-14625
릇	-14626
엥	-14627
클	-14628
팩	-14629
눌	-14630
렁	-14631
씹	-14632
쯤	-14633
켓	-14634
혈	-14635
곱	-14636
깡	-14637
떄	-14638
봅	-14639
뷰	-14640
씬	-14641
잉	-14642
짱	-14643
쫄	-14644
층	-14645
칭	-14646
쿠	-14647
흠	-14648
굳	-14649
깍	-14650
꿇	-14651
돕	-14652
뚫	-14653
맹	-14654
압	-14655
흘	-14656
흥	-14657
넉	-14658
섞	-14659
얻	-14660
옛	-14661
율	-14662
캐	-14663
콜	-14664
틱	-14665
훼	-14666
휠	-14667
극	-14668
꽉	-14669
끈	-14670
댔	-14671
뒀	-14672
득	-14673
릅	-14674
묶	-14675
뼈	-14676
샌	-14677
쑤	-14678
컸	-14679
턱	-14680
텔	-14681
팥	-14682
펴	-14683
픽	-14684
효	-14685
힌	-14686
굶	-14687
긁	-14688
꿈	-14689
뀌	-14690
념	-14691
닫	-14692
댁	-14693
딪	-14694
뭣	-14695
샤	-14696
슷	-14697
첫	-14698
텨	-14699
핫	-14700
휘	-14701
꼼	-14702
꾼	-14703
됬	-14704
벅	-14705
뵈	-14706
싱	-14707
엿	-14708
융	-14709
쩍	-14710
쫌	-14711
촬	-14712
텅	-14713
팬	-14714
홀	-14715
흉	-14716
깄	-14717
껌	-14718
냉	-14719
뇌	-14720
땀	-14721
랫	-14722
몽	-14723
볶	-14724
빙	-14725
빚	-14726
빛	-14727
쏘	-14728
엽	-14729
웅	-14730
짖	-14731
츠	-14732
펜	-14733
굼	-14734
깟	-14735
벤	-14736
뺐	-14737
뽀	-14738
숭	-14739
엘	-14740
웩	-14741
쫙	-14742
튜	-14743
풉	-14744
핀	-14745
헌	-14746
훨	-14747
껍	-14748
댓	-14749
쁠	-14750
삐	-14751
삿	-14752
셋	-14753
쌀	-14754
쏠	-14755
앵	-14756
엎	-14757
읍	-14758
젓	-14759
쪄	-14760
촉	-14761
퉁	-14762
틴	-14763
팍	-14764
흔	-14765
흡	-14766
겸	-14767
귓	-14768
꼰	-14769
꽂	-14770
낀	-14771
넨	-14772
듬	-14773
띠	-14774
랍	-14775
벙	-14776
샵	-14777
왠	-14778
욱	-14779
즉	-14780
짠	-14781
첨	-14782
컵	-14783
콱	-14784
탑	-14785
튕	-14786
팟	-14787
혐	-14788
훈	-14789
겐	-14790
겪	-14791
끓	-14792
낄	-14793
낌	-14794
돋	-14795
듭	-14796
땜	-14797
뤄	-14798
맥	-14799
뭡	-14800
밟	-14801
벵	-14802
빽	-14803
뽕	-14804
삶	-14805
쇠	-14806
앱	-14807
옳	-14808
왼	-14809
잤	-14810
좁	-14811
줍	-14812
짬	-14813
쩜	-14814
춘	-14815
측	-14816
탔	-14817
탱	-14818
톱	-14819
팡	-14820
폈	-14821
폼	-14822
횡	-14823
궈	-14824
귄	-14825
닝	-14826
댄	-14827
덤	-14828
델	-14829
떳	-14830
멸	-14831
뮤	-14832
뺀	-14833
뻥	-14834
쁨	-14835
샐	-14836
썰	-14837
앨	-14838
잣	-14839
좆	-14840
쨋	-14841
콘	-14842
큭	-14843
킄	-14844
깎	-14845
꿍	-14846
랗	-14847
램	-14848
렬	-14849
뢰	-14850
뱃	-14851
뵙	-14852
빗	-14853
뻗	-14854
뿔	-14855
삥	-14856
샘	-14857
셀	-14858
슈	-14859
썹	-14860
쏟	-14861
왤	-14862
잼	-14863
쯔	-14864
쵸	-14865
컹	-14866
킥	-14867
툭	-14868
햐	-14869
귈	-14870
꽁	-14871
냔	-14872
넥	-14873
덮	-14874
됏	-14875
뒈	-14876
떙	-14877
떵	-14878
뚜	-14879
럭	-14880
렌	-14881
렛	-14882
롤	-14883
롸	-14884
룸	-14885
률	-14886
믹	-14887
뱉	-14888
붕	-14889
뺌	-14890
셈	-14891
쉰	-14892
쌓	-14893
쌔	-14894
썻	-14895
쐬	-14896
웬	-14897
젤	-14898
찝	-14899
캡	-14900
컥	-14901
쾅	-14902
퀴	-14903
템	-14904
틸	-14905
핳	-14906
흰	-14907
갇	-14908
겄	-14909
깊	-14910
깽	-14911
꼽	-14912
뉘	-14913
닿	-14914
똘	-14915
뜩	-14916
뜰	-14917
뜸	-14918
띨	-14919
랭	-14920
렴	-14921
룹	-14922
멧	-14923
뫄	-14924
빤	-14925
섬	-14926
섯	-14927
숴	-14928
슉	-14929
썸	-14930
앙	-14931
앤	-14932
얹	-14933
쟨	-14934
젖	-14935
쩝	-14936
쪘	-14937
쭉	-14938
쭤	-14939
칩	-14940
캠	-14941
켁	-14942
쿨	-14943
큐	-14944
펑	-14945
핵	-14946
흙	-14947
갓	-14948
갠	-14949
갱	-14950
귿	-14951
깁	-14952
깠	-14953
꿨	-14954
낡	-14955
녜	-14956
늉	-14957
닭	-14958
닳	-14959
댕	-14960
띵	-14961
랙	-14962
랴	-14963
럿	-14964
렉	-14965
릐	-14966
몬	-14967
및	-14968
볍	-14969
빻	-14970
뺄	-14971
뻑	-14972
뻘	-14973
쁩	-14974
샷	-14975
솥	-14976
쇄	-14977
숍	-14978
숟	-14979
쉐	-14980
쉴	-14981
싯	-14982
썅	-14983
쑥	-14984
얄	-14985
엊	-14986
엮	-14987
옙	-14988
왁	-14989
웨	-14990
좔	-14991
줫	-14992
짭	-14993
쩨	-14994
칸	-14995
퀄	-14996
